<unk>	0
<s>	0
</s>	0
<PERSON>	0
<NORP>	0
<FAC>	0
<ORG>	0
<GPE>	0
<LOC>	0
<PRODUCT>	0
<EVENT>	0
<WORK_OF_ART>	0
<LAW>	0
<LANGUAGE>	0
</PERSON>	0
</NORP>	0
</FAC>	0
</ORG>	0
</GPE>	0
</LOC>	0
</PRODUCT>	0
</EVENT>	0
</WORK_OF_ART>	0
</LAW>	0
</LANGUAGE>	0
<URL>	0
<ALNUM>	0
<MONEY>	0
<NUM>	0
<ORD>	0
<PHN>	0
<POST>	0
<TIME>	0
</URL>	0
</ALNUM>	0
</MONEY>	0
</NUM>	0
</ORD>	0
</PHN>	0
</POST>	0
</TIME>	0
_t	-0
_a	-1
_th	-2
_i	-3
_the	-4
_s	-5
re	-6
_w	-7
in	-8
on	-9
er	-10
_c	-11
at	-12
ou	-13
_b	-14
_f	-15
or	-16
en	-17
_to	-18
_p	-19
_m	-20
ing	-21
_h	-22
_d	-23
es	-24
an	-25
_o	-26
_an	-27
ed	-28
_in	-29
it	-30
ll	-31
le	-32
is	-33
_n	-34
ar	-35
_of	-36
_and	-37
as	-38
_y	-39
ion	-40
ro	-41
_l	-42
ic	-43
_is	-44
_you	-45
us	-46
_re	-47
_e	-48
_g	-49
al	-50
ve	-51
_it	-52
_be	-53
_wh	-54
ct	-55
om	-56
_that	-57
ent	-58
ot	-59
_on	-60
00	-61
ow	-62
et	-63
ut	-64
_for	-65
ld	-66
ly	-67
st	-68
ay	-69
ver	-70
_ha	-71
id	-72
_st	-73
un	-74
ith	-75
am	-76
ch	-77
_this	-78
ce	-79
ig	-80
_us	-81
_with	-82
_we	-83
_as	-84
_pro	-85
im	-86
all	-87
ad	-88
ation	-89
_con	-90
ke	-91
_r	-92
_he	-93
od	-94
_do	-95
_have	-96
_not	-97
se	-98
_se	-99
ill	-100
_can	-101
ter	-102
ould	-103
ur	-104
_but	-105
th	-106
_ne	-107
_de	-108
ate	-109
_are	-110
pp	-111
_v	-112
out	-113
ble	-114
_j	-115
il	-116
_com	-117
_ex	-118
_00	-119
_sh	-120
ir	-121
_so	-122
ag	-123
qu	-124
_ch	-125
ck	-126
ul	-127
est	-128
_or	-129
_tr	-130
ment	-131
ers	-132
ore	-133
_if	-134
_su	-135
_at	-136
ect	-137
rom	-138
_al	-139
ant	-140
ere	-141
ess	-142
ol	-143
if	-144
_from	-145
_lo	-146
ain	-147
_wor	-148
_was	-149
igh	-150
ust	-151
_your	-152
em	-153
_k	-154
op	-155
_will	-156
ri	-157
oun	-158
_som	-159
_un	-160
ally	-161
ist	-162
_my	-163
and	-164
_all	-165
um	-166
_li	-167
our	-168
_there	-169
_go	-170
up	-171
_by	-172
_how	-173
_what	-174
res	-175
_le	-176
end	-177
_me	-178
ort	-179
os	-180
art	-181
_ma	-182
ight	-183
_any	-184
pt	-185
ie	-186
_cl	-187
_app	-188
_sp	-189
_ad	-190
ive	-191
_ab	-192
ich	-193
_work	-194
ame	-195
_would	-196
_when	-197
ity	-198
_has	-199
age	-200
ack	-201
_am	-202
_some	-203
_one	-204
_they	-205
ab	-206
_which	-207
_get	-208
_qu	-209
_use	-210
_up	-211
_int	-212
ue	-213
_pl	-214
ction	-215
pl	-216
ple	-217
_out	-218
_im	-219
gh	-220
ind	-221
_0	-222
ok	-223
_like	-224
ra	-225
ies	-226
ine	-227
able	-228
ile	-229
ge	-230
_cont	-231
ode	-232
_ar	-233
ure	-234
one	-235
ase	-236
so	-237
eth	-238
_sa	-239
_need	-240
ough	-241
_just	-242
ard	-243
_want	-244
iv	-245
ost	-246
ire	-247
cc	-248
very	-249
are	-250
ated	-251
ast	-252
ound	-253
per	-254
ther	-255
_more	-256
ass	-257
ult	-258
_tim	-259
_res	-260
ach	-261
_then	-262
_kn	-263
nt	-264
_no	-265
ide	-266
_te	-267
der	-268
_using	-269
_en	-270
_about	-271
ear	-272
ice	-273
ud	-274
ong	-275
_comp	-276
ial	-277
_dat	-278
_also	-279
_way	-280
_know	-281
_than	-282
_man	-283
_new	-284
ink	-285
_does	-286
_ev	-287
_sc	-288
iz	-289
ions	-290
ite	-291
_other	-292
aus	-293
ans	-294
_af	-295
act	-296
oth	-297
_0000	-298
_only	-299
_ser	-300
_add	-301
_don	-302
_should	-303
el	-304
ject	-305
_per	-306
_bec	-307
fere	-308
ap	-309
_time	-310
ous	-311
ber	-312
_cre	-313
orm	-314
_could	-315
ose	-316
_them	-317
ec	-318
ace	-319
_inst	-320
_fir	-321
_ta	-322
int	-323
_code	-324
_his	-325
_dis	-326
_their	-327
lo	-328
_ag	-329
_ro	-330
_into	-331
ause	-332
cl	-333
_co	-334
_over	-335
_pre	-336
_part	-337
_who	-338
_first	-339
_val	-340
_set	-341
_fun	-342
_been	-343
_chan	-344
_our	-345
_acc	-346
_try	-347
av	-348
_tw	-349
_ob	-350
_see	-351
_call	-352
ary	-353
_fo	-354
_now	-355
_said	-356
ign	-357
_look	-358
_fe	-359
ail	-360
_po	-361
ff	-362
ip	-363
lic	-364
_str	-365
con	-366
_comm	-367
ting	-368
_had	-369
ations	-370
ance	-371
ays	-372
_after	-373
ress	-374
blem	-375
_off	-376
_problem	-377
ick	-378
_make	-379
_dif	-380
_rep	-381
_data	-382
_year	-383
_rec	-384
_because	-385
_were	-386
_where	-387
urn	-388
ac	-389
ath	-390
_here	-391
ry	-392
_same	-393
_think	-394
_run	-395
ens	-396
_may	-397
form	-398
_bet	-399
xt	-400
ub	-401
de	-402
_exp	-403
_hel	-404
ition	-405
_sim	-406
ord	-407
_its	-408
_two	-409
ory	-410
ount	-411
_ke	-412
_pos	-413
_act	-414
own	-415
_gr	-416
ied	-417
_bu	-418
og	-419
_help	-420
_back	-421
_wr	-422
ari	-423
_file	-424
_every	-425
du	-426
vel	-427
_pe	-428
ia	-429
_these	-430
vers	-431
gr	-432
ings	-433
_sy	-434
ish	-435
_did	-436
_differe	-437
_under	-438
king	-439
_def	-440
_bo	-441
_inter	-442
ree	-443
ence	-444
row	-445
ep	-446
iew	-447
si	-448
ove	-449
ments	-450
_right	-451
_ret	-452
ild	-453
ving	-454
_imp	-455
_well	-456
_she	-457
_rem	-458
_sl	-459
_form	-460
ical	-461
_pr	-462
_sol	-463
ks	-464
ning	-465
ates	-466
_even	-467
_num	-468
_000	-469
ating	-470
ors	-471
_mar	-472
_att	-473
_very	-474
te	-475
ash	-476
yp	-477
_find	-478
_each	-479
fore	-480
_peop	-481
_em	-482
_ph	-483
_people	-484
_quest	-485
_des	-486
_gen	-487
_class	-488
rough	-489
ific	-490
ever	-491
err	-492
ull	-493
_start	-494
ues	-495
_requ	-496
_her	-497
_why	-498
_meth	-499
ually	-500
_spec	-501
_method	-502
ution	-503
_cor	-504
_good	-505
read	-506
_list	-507
_supp	-508
_cons	-509
_bel	-510
_fil	-511
_most	-512
_gu	-513
_trying	-514
other	-515
ces	-516
_ele	-517
_cur	-518
ents	-519
ved	-520
ual	-521
we	-522
_point	-523
ething	-524
ade	-525
_used	-526
_che	-527
_mat	-528
_mu	-529
_show	-530
les	-531
_again	-532
_through	-533
_br	-534
cess	-535
_object	-536
_bas	-537
ince	-538
_before	-539
_inc	-540
_par	-541
_seem	-542
itt	-543
_down	-544
_gener	-545
_however	-546
_still	-547
ft	-548
_fr	-549
_ins	-550
_sub	-551
wn	-552
_those	-553
ious	-554
_typ	-555
_iss	-556
_state	-557
_ass	-558
gg	-559
_play	-560
_much	-561
ph	-562
_read	-563
ome	-564
_reg	-565
iss	-566
_being	-567
_inv	-568
_many	-569
_op	-570
sel	-571
ak	-572
ix	-573
_ent	-574
ert	-575
_value	-576
_rel	-577
_$	-578
_result	-579
_user	-580
_exam	-581
_going	-582
_jo	-583
_dire	-584
_while	-585
_since	-586
_return	-587
000	-588
_really	-589
_possi	-590
_end	-591
ang	-592
clud	-593
day	-594
ict	-595
_last	-596
reat	-597
_la	-598
ason	-599
_pol	-600
_both	-601
_vari	-602
ise	-603
thing	-604
ript	-605
ty	-606
ead	-607
_conf	-608
_another	-609
ically	-610
llow	-611
_col	-612
_doesn	-613
_take	-614
_him	-615
_err	-616
_pass	-617
ru	-618
_check	-619
_case	-620
cond	-621
_say	-622
_sure	-623
_aut	-624
_test	-625
_long	-626
ative	-627
_sm	-628
_prov	-629
_ind	-630
_web	-631
put	-632
ss	-633
ci	-634
_such	-635
_number	-636
erm	-637
_high	-638
stem	-639
_create	-640
_change	-641
_hand	-642
_mon	-643
_pres	-644
_second	-645
_though	-646
_let	-647
_fin	-648
ular	-649
_fl	-650
ced	-651
_happ	-652
_curre	-653
_dec	-654
_mo	-655
_char	-656
arch	-657
_ac	-658
ient	-659
_dep	-660
_includ	-661
ize	-662
_found	-663
_without	-664
_trans	-665
_working	-666
cept	-667
_applic	-668
_might	-669
_follow	-670
_produ	-671
rib	-672
gin	-673
_system	-674
_direct	-675
_able	-676
_own	-677
bo	-678
_cr	-679
ween	-680
_ide	-681
_ext	-682
_server	-683
vice	-684
_between	-685
ery	-686
ield	-687
_project	-688
ages	-689
_det	-690
_giv	-691
_bl	-692
_current	-693
_view	-694
gram	-695
_works	-696
_loc	-697
_put	-698
_example	-699
_ap	-700
_proper	-701
_got	-702
_min	-703
_line	-704
_program	-705
lease	-706
_mem	-707
_count	-708
_page	-709
sw	-710
_contro	-711
ful	-712
_open	-713
_mod	-714
_eff	-715
_chang	-716
ered	-717
_av	-718
_opt	-719
ton	-720
_doing	-721
self	-722
_x	-723
ility	-724
_answ	-725
rop	-726
_years	-727
ys	-728
_id	-729
oc	-730
_error	-731
_process	-732
ether	-733
nce	-734
velop	-735
_won	-736
_cle	-737
ves	-738
_eas	-739
ute	-740
kes	-741
rect	-742
_access	-743
_post	-744
illion	-745
ower	-746
ell	-747
_lot	-748
nect	-749
_instead	-750
_better	-751
ven	-752
_resp	-753
_arr	-754
ities	-755
_issue	-756
_wind	-757
ater	-758
its	-759
ract	-760
ctions	-761
_develop	-762
_too	-763
_made	-764
stand	-765
ward	-766
_allow	-767
_around	-768
_comple	-769
_build	-770
oup	-771
ian	-772
_car	-773
_expl	-774
_ear	-775
_table	-776
uring	-777
_vers	-778
_ed	-779
_sign	-780
_mode	-781
_support	-782
ably	-783
_cour	-784
_great	-785
_tried	-786
li	-787
_expect	-788
red	-789
_real	-790
_name	-791
_doc	-792
_stud	-793
old	-794
ices	-795
_things	-796
_connect	-797
way	-798
_sch	-799
_oper	-800
_pers	-801
_text	-802
lect	-803
ways	-804
_correct	-805
cy	-806
_come	-807
_files	-808
_el	-809
_pub	-810
tern	-811
_mark	-812
_dot	-813
_inform	-814
_keep	-815
_report	-816
_next	-817
_type	-818
ident	-819
_contain	-820
_group	-821
_window	-822
ready	-823
_seems	-824
_field	-825
_lar	-826
ify	-827
ork	-828
ml	-829
_already	-830
ics	-831
_u	-832
ren	-833
ather	-834
_blo	-835
_best	-836
_coll	-837
_bit	-838
_reason	-839
_cust	-840
_mult	-841
_ref	-842
_const	-843
_slash	-844
als	-845
_give	-846
_upd	-847
_jav	-848
hing	-849
ets	-850
_key	-851
_bus	-852
ument	-853
ily	-854
ures	-855
_install	-856
be	-857
_rest	-858
_always	-859
_having	-860
_please	-861
_world	-862
ters	-863
_custom	-864
ieve	-865
ited	-866
_imple	-867
ames	-868
_sec	-869
_far	-870
ime	-871
br	-872
atch	-873
ines	-874
_fact	-875
_tell	-876
_order	-877
_appro	-878
led	-879
_few	-880
_never	-881
_main	-882
_answer	-883
_mean	-884
_sur	-885
_prob	-886
_array	-887
_head	-888
ger	-889
ts	-890
_thing	-891
oy	-892
_contin	-893
_z	-894
_store	-895
_compan	-896
_must	-897
ittle	-898
_values	-899
view	-900
amp	-901
ond	-902
ody	-903
ention	-904
_little	-905
io	-906
_incre	-907
vious	-908
_datab	-909
ately	-910
vern	-911
_beh	-912
ope	-913
_getting	-914
_wrong	-915
_big	-916
_import	-917
_turn	-918
_hard	-919
ah	-920
_looking	-921
ational	-922
_done	-923
cus	-924
ined	-925
_sw	-926
_sing	-927
_cent	-928
ared	-929
_dist	-930
_tal	-931
_sugg	-932
_suggest	-933
_string	-934
_inde	-935
_three	-936
ave	-937
_load	-938
_called	-939
_once	-940
_dem	-941
ither	-942
_mess	-943
_exper	-944
_million	-945
_image	-946
air	-947
_war	-948
_govern	-949
ense	-950
_vis	-951
_place	-952
_adv	-953
bers	-954
_dri	-955
_exec	-956
_cert	-957
_team	-958
_above	-959
_running	-960
eric	-961
_didn	-962
ser	-963
load	-964
ife	-965
_perform	-966
ired	-967
not	-968
_colum	-969
iting	-970
_wee	-971
_day	-972
_anyone	-973
olog	-974
_happen	-975
ator	-976
_lead	-977
_game	-978
_stand	-979
_link	-980
_miss	-981
_multi	-982
iness	-983
_inf	-984
_ht	-985
_net	-986
_dr	-987
ially	-988
_against	-989
_model	-990
_top	-991
_during	-992
ql	-993
_request	-994
_fine	-995
_partic	-996
ider	-997
get	-998
_full	-999
_kind	-1000
_log	-1001
_intern	-1002
_event	-1003
_plan	-1004
ross	-1005
_exist	-1006
_column	-1007
_med	-1008
,000	-1009
_yes	-1010
ump	-1011
_version	-1012
ner	-1013
_displ	-1014
ased	-1015
_depend	-1016
ized	-1017
_idea	-1018
_person	-1019
_equ	-1020
son	-1021
_command	-1022
_bre	-1023
ault	-1024
arter	-1025
_small	-1026
ange	-1027
_below	-1028
_pri	-1029
_ok	-1030
_script	-1031
ern	-1032
_based	-1033
_select	-1034
ware	-1035
ier	-1036
_term	-1037
_simple	-1038
cript	-1039
_within	-1040
ource	-1041
work	-1042
_grow	-1043
_says	-1044
_cal	-1045
_inside	-1046
_single	-1047
wh	-1048
less	-1049
_given	-1050
osed	-1051
_month	-1052
_spe	-1053
_ask	-1054
cial	-1055
ouse	-1056
_child	-1057
ib	-1058
ature	-1059
ted	-1060
_fix	-1061
igure	-1062
ne	-1063
_law	-1064
_sit	-1065
_control	-1066
_isn	-1067
ables	-1068
_prot	-1069
_record	-1070
hip	-1071
ilar	-1072
_level	-1073
_move	-1074
_cap	-1075
man	-1076
_search	-1077
_either	-1078
_charact	-1079
_old	-1080
_word	-1081
ference	-1082
_service	-1083
_similar	-1084
_someone	-1085
_clear	-1086
_uni	-1087
gan	-1088
uck	-1089
erest	-1090
_public	-1091
_quarter	-1092
_feel	-1093
_means	-1094
ases	-1095
_created	-1096
inal	-1097
_unt	-1098
_send	-1099
_power	-1100
_row	-1101
_offic	-1102
_invest	-1103
_cannot	-1104
ails	-1105
ont	-1106
_americ	-1107
_effect	-1108
_leg	-1109
_button	-1110
_less	-1111
_tech	-1112
ons	-1113
_accord	-1114
ten	-1115
_fam	-1116
_query	-1117
_product	-1118
par	-1119
_times	-1120
_ur	-1121
_auth	-1122
_click	-1123
_left	-1124
_item	-1125
_side	-1126
_pack	-1127
_certain	-1128
_pat	-1129
_bro	-1130
ling	-1131
_display	-1132
_care	-1133
reen	-1134
_enough	-1135
_nothing	-1136
_write	-1137
lish	-1138
_design	-1139
_eng	-1140
_tem	-1141
ience	-1142
_windows	-1143
ism	-1144
_home	-1145
_appear	-1146
_opp	-1147
_whether	-1148
line	-1149
_conc	-1150
ird	-1151
_stru	-1152
_avail	-1153
ank	-1154
_results	-1155
atic	-1156
_job	-1157
pect	-1158
_thanks	-1159
ible	-1160
_input	-1161
_arg	-1162
_output	-1163
_local	-1164
arent	-1165
_param	-1166
_until	-1167
ploy	-1168
_commun	-1169
_init	-1170
ccess	-1171
_eu	-1172
_making	-1173
_cop	-1174
_rece	-1175
_maybe	-1176
ule	-1177
_repl	-1178
_ve	-1179
_pop	-1180
_exact	-1181
_deb	-1182
ken	-1183
_pay	-1184
ene	-1185
_recent	-1186
_libr	-1187
_ca	-1188
_hope	-1189
_match	-1190
ided	-1191
_es	-1192
_company	-1193
_bar	-1194
_four	-1195
_non	-1196
_red	-1197
ctor	-1198
fect	-1199
_loop	-1200
ax	-1201
yn	-1202
ified	-1203
_00%	-1204
_techn	-1205
_prof	-1206
_assum	-1207
_week	-1208
_life	-1209
_sever	-1210
_art	-1211
_port	-1212
ply	-1213
_orig	-1214
erg	-1215
ency	-1216
ists	-1217
_brow	-1218
med	-1219
_course	-1220
_block	-1221
ool	-1222
_else	-1223
_large	-1224
_api	-1225
raph	-1226
ision	-1227
_cho	-1228
_setting	-1229
_pur	-1230
_step	-1231
_ra	-1232
na	-1233
_free	-1234
_simply	-1235
_rather	-1236
_several	-1237
_goog	-1238
_space	-1239
_makes	-1240
_wa	-1241
_least	-1242
_added	-1243
_enc	-1244
_believe	-1245
_stre	-1246
_element	-1247
_cost	-1248
_option	-1249
_lear	-1250
_told	-1251
_lim	-1252
co	-1253
_met	-1254
_paramet	-1255
_changes	-1256
ital	-1257
vices	-1258
_nor	-1259
itch	-1260
_mr	-1261
pped	-1262
_respon	-1263
_default	-1264
ides	-1265
cent	-1266
_wom	-1267
_today	-1268
_success	-1269
_pret	-1270
_yet	-1271
unch	-1272
_pa	-1273
ality	-1274
land	-1275
_needs	-1276
_address	-1277
idd	-1278
_sort	-1279
_py	-1280
_$00	-1281
side	-1282
sh	-1283
_div	-1284
_cond	-1285
_content	-1286
_except	-1287
_past	-1288
_size	-1289
ric	-1290
_thank	-1291
_note	-1292
_sk	-1293
min	-1294
alth	-1295
_site	-1296
_source	-1297
_hum	-1298
_men	-1299
_market	-1300
ood	-1301
_win	-1302
_later	-1303
ortun	-1304
_rese	-1305
_occ	-1306
_update	-1307
_google	-1308
ization	-1309
_users	-1310
_book	-1311
_separ	-1312
_away	-1313
_activ	-1314
_path	-1315
omm	-1316
eng	-1317
_tool	-1318
_city	-1319
_$000	-1320
_00-	-1321
_seen	-1322
_press	-1323
_env	-1324
riend	-1325
_thought	-1326
_html	-1327
_norm	-1328
oney	-1329
ior	-1330
vert	-1331
_account	-1332
aces	-1333
_remain	-1334
_deal	-1335
_dom	-1336
_fore	-1337
_fail	-1338
_figure	-1339
_police	-1340
_short	-1341
ug	-1342
_provide	-1343
_pretty	-1344
_ye	-1345
_general	-1346
_fire	-1347
ants	-1348
ote	-1349
_ann	-1350
ised	-1351
_air	-1352
_dra	-1353
_states	-1354
gress	-1355
thon	-1356
ness	-1357
_quite	-1358
_house	-1359
_comes	-1360
_comput	-1361
_looks	-1362
_likely	-1363
_tra	-1364
_client	-1365
_dele	-1366
_thread	-1367
_memory	-1368
_sal	-1369
ateg	-1370
ush	-1371
mm	-1372
itive	-1373
_lay	-1374
_inte	-1375
_hold	-1376
_polit	-1377
_kill	-1378
_itself	-1379
_ident	-1380
ron	-1381
aps	-1382
_fur	-1383
_decl	-1384
_days	-1385
iron	-1386
itions	-1387
_repres	-1388
_country	-1389
_autom	-1390
_execut	-1391
_ach	-1392
pr	-1393
_java	-1394
_close	-1395
_school	-1396
_mach	-1397
_prom	-1398
ession	-1399
que	-1400
_secur	-1401
_face	-1402
_environ	-1403
_near	-1404
_whole	-1405
thers	-1406
_struct	-1407
ark	-1408
_share	-1409
_defin	-1410
_collect	-1411
ale	-1412
itional	-1413
_via	-1414
_library	-1415
_came	-1416
_message	-1417
_explain	-1418
oid	-1419
_saf	-1420
aster	-1421
_sent	-1422
_vide	-1423
pping	-1424
ciated	-1425
cle	-1426
_maj	-1427
_news	-1428
_stop	-1429
_camp	-1430
_sql	-1431
_require	-1432
ives	-1433
_di	-1434
_percent	-1435
_tot	-1436
_impro	-1437
empt	-1438
cul	-1439
_est	-1440
_fut	-1441
_appre	-1442
body	-1443
_mil	-1444
ms	-1445
_tar	-1446
_uses	-1447
_bad	-1448
_entire	-1449
_points	-1450
_lang	-1451
_et	-1452
_money	-1453
_manag	-1454
_prop	-1455
_ever	-1456
_php	-1457
_lab	-1458
_across	-1459
_valid	-1460
_begin	-1461
cing	-1462
_url	-1463
_express	-1464
_fold	-1465
_hal	-1466
ials	-1467
ries	-1468
_index	-1469
_format	-1470
_diff	-1471
_webs	-1472
_python	-1473
_attack	-1474
_often	-1475
_econ	-1476
_easy	-1477
_further	-1478
ott	-1479
_comb	-1480
_econom	-1481
_friend	-1482
_date	-1483
_exactly	-1484
_strong	-1485
where	-1486
_light	-1487
_mention	-1488
_mor	-1489
_true	-1490
ller	-1491
_major	-1492
_behav	-1493
_objects	-1494
_due	-1495
_constru	-1496
ins	-1497
ask	-1498
oint	-1499
und	-1500
roid	-1501
back	-1502
_gets	-1503
ned	-1504
_langu	-1505
_caus	-1506
_hour	-1507
ology	-1508
_season	-1509
_started	-1510
_wanted	-1511
ler	-1512
ended	-1513
_future	-1514
_hist	-1515
to	-1516
_yeah	-1517
_tog	-1518
most	-1519
_health	-1520
_remove	-1521
_mom	-1522
_dou	-1523
ration	-1524
az	-1525
_copy	-1526
itor	-1527
_along	-1528
_organ	-1529
_oh	-1530
_lat	-1531
rope	-1532
_pract	-1533
_present	-1534
_frame	-1535
_pot	-1536
_action	-1537
_ho	-1538
_others	-1539
_issues	-1540
ully	-1541
_talk	-1542
ock	-1543
_sam	-1544
com	-1545
viously	-1546
_compon	-1547
ascript	-1548
_coun	-1549
_quick	-1550
_third	-1551
_mus	-1552
_numbers	-1553
_tax	-1554
_redu	-1555
_rele	-1556
_europe	-1557
_ren	-1558
_print	-1559
ability	-1560
urs	-1561
_map	-1562
_host	-1563
_common	-1564
_config	-1565
tain	-1566
_returns	-1567
_vi	-1568
_android	-1569
_har	-1570
_needed	-1571
utes	-1572
_fre	-1573
net	-1574
face	-1575
_sound	-1576
_box	-1577
imes	-1578
_methods	-1579
_vol	-1580
_shows	-1581
crib	-1582
fully	-1583
ember	-1584
_trump	-1585
_cell	-1586
ards	-1587
_priv	-1588
ral	-1589
_include	-1590
box	-1591
_glo	-1592
_screen	-1593
_attempt	-1594
atically	-1595
ules	-1596
_guess	-1597
_network	-1598
ission	-1599
_ste	-1600
uation	-1601
_save	-1602
_takes	-1603
vent	-1604
ilt	-1605
_party	-1606
_cou	-1607
ats	-1608
_focus	-1609
_fund	-1610
mb	-1611
_anal	-1612
_etc	-1613
_water	-1614
ring	-1615
_become	-1616
ister	-1617
_area	-1618
_matter	-1619
_low	-1620
ination	-1621
_parent	-1622
_sou	-1623
_sense	-1624
_almost	-1625
iter	-1626
_missing	-1627
_polic	-1628
_pick	-1629
_base	-1630
_taking	-1631
_amount	-1632
_tag	-1633
ety	-1634
_gl	-1635
aim	-1636
me	-1637
ged	-1638
_worked	-1639
_wonder	-1640
_q	-1641
by	-1642
_invol	-1643
_compil	-1644
_del	-1645
fer	-1646
_took	-1647
_author	-1648
_night	-1649
_coming	-1650
ina	-1651
uff	-1652
ural	-1653
ret	-1654
_mind	-1655
_names	-1656
ars	-1657
_ge	-1658
_fac	-1659
_forward	-1660
_cir	-1661
_special	-1662
_protect	-1663
_calcul	-1664
time	-1665
_adding	-1666
_video	-1667
_website	-1668
_mag	-1669
_necess	-1670
_accept	-1671
_family	-1672
_sen	-1673
aring	-1674
_ris	-1675
orn	-1676
_meet	-1677
_changed	-1678
_months	-1679
ake	-1680
_outside	-1681
ugh	-1682
book	-1683
_half	-1684
_human	-1685
ground	-1686
ension	-1687
_avoid	-1688
_ago	-1689
fl	-1690
_recomm	-1691
_attrib	-1692
ires	-1693
_univers	-1694
bit	-1695
ending	-1696
ential	-1697
_device	-1698
_black	-1699
ples	-1700
year	-1701
_vir	-1702
ances	-1703
_went	-1704
_elect	-1705
ering	-1706
_growth	-1707
_solve	-1708
_initial	-1709
_white	-1710
itten	-1711
verage	-1712
ources	-1713
ties	-1714
_cases	-1715
_ways	-1716
att	-1717
_bene	-1718
_soft	-1719
_hit	-1720
_admin	-1721
_asso	-1722
though	-1723
_love	-1724
bal	-1725
_reach	-1726
_remo	-1727
_resol	-1728
_meas	-1729
_mic	-1730
ived	-1731
_machine	-1732
_sn	-1733
_bill	-1734
_story	-1735
_women	-1736
_folder	-1737
_live	-1738
_comment	-1739
_browser	-1740
ming	-1741
_wal	-1742
query	-1743
ands	-1744
_court	-1745
ape	-1746
_stat	-1747
_somet	-1748
ued	-1749
_anim	-1750
_super	-1751
icult	-1752
ators	-1753
word	-1754
ots	-1755
_asked	-1756
_assign	-1757
_watch	-1758
_manage	-1759
_commit	-1760
_compl	-1761
_cut	-1762
_images	-1763
_ver	-1764
_da	-1765
_members	-1766
_target	-1767
_claim	-1768
_ant	-1769
_fed	-1770
cuss	-1771
_determ	-1772
ew	-1773
_achieve	-1774
ane	-1775
_cause	-1776
_track	-1777
xim	-1778
ories	-1779
unt	-1780
_sty	-1781
ively	-1782
_lines	-1783
utions	-1784
_disc	-1785
_five	-1786
_items	-1787
_train	-1788
ik	-1789
ama	-1790
_break	-1791
tp	-1792
for	-1793
por	-1794
_handle	-1795
_sus	-1796
val	-1797
_package	-1798
_longer	-1799
roll	-1800
ng	-1801
ivid	-1802
_related	-1803
_body	-1804
pec	-1805
_total	-1806
ison	-1807
_benef	-1808
_early	-1809
_terms	-1810
_higher	-1811
rodu	-1812
rie	-1813
_writing	-1814
_built	-1815
_employ	-1816
_known	-1817
app	-1818
_force	-1819
els	-1820
ergy	-1821
of	-1822
_switch	-1823
_launch	-1824
ication	-1825
_types	-1826
_neg	-1827
_happens	-1828
ium	-1829
_behind	-1830
_rout	-1831
_mac	-1832
_discuss	-1833
_abs	-1834
_ip	-1835
_individ	-1836
_usually	-1837
_classes	-1838
_unf	-1839
_concern	-1840
_color	-1841
uc	-1842
rap	-1843
icient	-1844
_dyn	-1845
_front	-1846
_0-	-1847
gn	-1848
_taken	-1849
wise	-1850
_throw	-1851
icle	-1852
_normal	-1853
_prim	-1854
_regard	-1855
_perfect	-1856
_games	-1857
_phone	-1858
_ang	-1859
_drop	-1860
_united	-1861
port	-1862
_micro	-1863
_indust	-1864
_goes	-1865
ext	-1866
_describ	-1867
_apply	-1868
_fall	-1869
wards	-1870
_ir	-1871
_bring	-1872
iddle	-1873
_consum	-1874
_json	-1875
_ill	-1876
_draw	-1877
_lin	-1878
_actual	-1879
_energy	-1880
_calls	-1881
_leave	-1882
_perm	-1883
eral	-1884
haps	-1885
aking	-1886
_media	-1887
ured	-1888
_written	-1889
_perhaps	-1890
uments	-1891
_among	-1892
_altern	-1893
_series	-1894
_options	-1895
_ut	-1896
_rus	-1897
_gives	-1898
_replace	-1899
icated	-1900
_range	-1901
ificant	-1902
_clos	-1903
ux	-1904
_node	-1905
_dynam	-1906
atures	-1907
_fields	-1908
ulation	-1909
_rad	-1910
iod	-1911
amed	-1912
_moment	-1913
_north	-1914
_ie	-1915
_couple	-1916
_dig	-1917
ising	-1918
_sat	-1919
_global	-1920
hn	-1921
_chr	-1922
ex	-1923
_flo	-1924
ache	-1925
used	-1926
_stay	-1927
_jquery	-1928
ges	-1929
_fight	-1930
_democ	-1931
_final	-1932
_haven	-1933
_phot	-1934
_words	-1935
_office	-1936
_dest	-1937
oud	-1938
ensive	-1939
_details	-1940
_nice	-1941
aries	-1942
_templ	-1943
_lower	-1944
_sun	-1945
ublic	-1946
ament	-1947
_calling	-1948
_former	-1949
_task	-1950
_capt	-1951
head	-1952
uration	-1953
_pull	-1954
medi	-1955
_social	-1956
aign	-1957
lf	-1958
_period	-1959
_tre	-1960
ee	-1961
idence	-1962
_feature	-1963
ift	-1964
_hours	-1965
ying	-1966
uge	-1967
_finally	-1968
_depart	-1969
action	-1970
ients	-1971
_drive	-1972
_ideas	-1973
iding	-1974
iction	-1975
asing	-1976
_vot	-1977
_rate	-1978
_players	-1979
_improve	-1980
tely	-1981
_soon	-1982
_sho	-1983
ians	-1984
point	-1985
ones	-1986
over	-1987
dd	-1988
_plu	-1989
_saw	-1990
_context	-1991
feren	-1992
_mass	-1993
_finan	-1994
set	-1995
ien	-1996
_integr	-1997
_rand	-1998
ief	-1999
_allows	-2000
_impact	-2001
_pie	-2002
_compet	-2003
_reven	-2004
ites	-2005
_online	-2006
ury	-2007
_john	-2008
_email	-2009
_sales	-2010
lier	-2011
selves	-2012
_eg	-2013
_reading	-2014
ony	-2015
_possib	-2016
_ban	-2017
_graph	-2018
_wasn	-2019
_nat	-2020
_complex	-2021
_events	-2022
_publish	-2023
aced	-2024
_empt	-2025
_slow	-2026
_clean	-2027
ney	-2028
_subm	-2029
_sor	-2030
_push	-2031
_insert	-2032
imate	-2033
ls	-2034
_module	-2035
_appears	-2036
_conv	-2037
_fair	-2038
_wouldn	-2039
_engine	-2040
itted	-2041
_release	-2042
_exce	-2043
_defined	-2044
_cam	-2045
_listen	-2046
_foot	-2047
acy	-2048
_god	-2049
_history	-2050
_policy	-2051
_rows	-2052
_bott	-2053
_announ	-2054
_prevent	-2055
_effort	-2056
_player	-2057
_mot	-2058
_rules	-2059
_wid	-2060
_espec	-2061
_fill	-2062
gest	-2063
_finish	-2064
_os	-2065
_ens	-2066
ored	-2067
_stack	-2068
_agree	-2069
_tit	-2070
_young	-2071
_cred	-2072
_extra	-2073
anch	-2074
ouch	-2075
standing	-2076
_six	-2077
_empty	-2078
_distrib	-2079
_speed	-2080
ero	-2081
_bi	-2082
_easily	-2083
odes	-2084
_room	-2085
_whate	-2086
aw	-2087
_dam	-2088
_viol	-2089
_lost	-2090
_errors	-2091
_purp	-2092
_food	-2093
_land	-2094
_trou	-2095
ently	-2096
_pattern	-2097
rew	-2098
_cy	-2099
ov	-2100
igation	-2101
_columns	-2102
_regular	-2103
ength	-2104
_affect	-2105
_phys	-2106
_center	-2107
_respect	-2108
_css	-2109
_milit	-2110
_trad	-2111
_crit	-2112
rict	-2113
icit	-2114
_death	-2115
_arm	-2116
_plugin	-2117
_south	-2118
_wait	-2119
_thus	-2120
_earlier	-2121
inter	-2122
_private	-2123
_price	-2124
_passed	-2125
entially	-2126
_prior	-2127
_trig	-2128
_summ	-2129
ival	-2130
_easier	-2131
_fast	-2132
_pict	-2133
_saying	-2134
_/	-2135
_tab	-2136
oring	-2137
_nav	-2138
_aud	-2139
_bal	-2140
_iter	-2141
_stuff	-2142
_card	-2143
_immedi	-2144
_various	-2145
_sorry	-2146
_member	-2147
_vict	-2148
_strateg	-2149
_stored	-2150
_squ	-2151
_basic	-2152
_pan	-2153
_learn	-2154
arily	-2155
_limit	-2156
_pred	-2157
_dead	-2158
_random	-2159
_den	-2160
ilities	-2161
_convert	-2162
gs	-2163
_xml	-2164
_mob	-2165
_filter	-2166
_aren	-2167
_core	-2168
_groups	-2169
pend	-2170
resh	-2171
_session	-2172
_runs	-2173
_emb	-2174
sible	-2175
_chall	-2176
_democr	-2177
_js	-2178
_late	-2179
_boot	-2180
_enter	-2181
_jud	-2182
js	-2183
down	-2184
_pain	-2185
_repe	-2186
verse	-2187
ogn	-2188
aut	-2189
_join	-2190
_couldn	-2191
_detect	-2192
_helps	-2193
mber	-2194
_plat	-2195
_stri	-2196
_goal	-2197
cies	-2198
_gon	-2199
_mer	-2200
_adj	-2201
_aw	-2202
_federal	-2203
era	-2204
_unique	-2205
reme	-2206
_morning	-2207
_worth	-2208
_safe	-2209
_useful	-2210
_capital	-2211
_fav	-2212
rain	-2213
_gir	-2214
ague	-2215
_ce	-2216
omes	-2217
_http	-2218
rypt	-2219
gor	-2220
_advance	-2221
_shown	-2222
lling	-2223
_obser	-2224
come	-2225
ried	-2226
_study	-2227
_treat	-2228
_optim	-2229
_&	-2230
_rights	-2231
_talking	-2232
_length	-2233
_ground	-2234
_unless	-2235
_assume	-2236
_minutes	-2237
_colle	-2238
erv	-2239
_sequ	-2240
_records	-2241
_seeing	-2242
_domain	-2243
_guys	-2244
ropri	-2245
_virt	-2246
_ign	-2247
_ones	-2248
_wall	-2249
_'	-2250
_testing	-2251
_recogn	-2252
izing	-2253
_ey	-2254
_christ	-2255
_arch	-2256
_stream	-2257
ili	-2258
inary	-2259
_sex	-2260
_middle	-2261
_tables	-2262
_math	-2263
_instru	-2264
_imm	-2265
_role	-2266
ids	-2267
_spl	-2268
pper	-2269
_moving	-2270
go	-2271
_hor	-2272
sql	-2273
_billion	-2274
_null	-2275
_terr	-2276
_dev	-2277
_ess	-2278
_gonna	-2279
board	-2280
_flow	-2281
_ball	-2282
_visual	-2283
_playing	-2284
_fixed	-2285
_imag	-2286
atively	-2287
_deploy	-2288
_desp	-2289
ream	-2290
_introdu	-2291
_jun	-2292
_aff	-2293
_ms	-2294
-00	-2295
_mater	-2296
rup	-2297
light	-2298
rest	-2299
her	-2300
_minim	-2301
_fit	-2302
_algor	-2303
_rob	-2304
_ub	-2305
_ord	-2306
sc	-2307
_simpl	-2308
_db	-2309
_cross	-2310
_syn	-2311
icate	-2312
_self	-2313
++	-2314
pro	-2315
_choose	-2316
_circ	-2317
_touch	-2318
_allowed	-2319
_edit	-2320
_referen	-2321
ps	-2322
_occur	-2323
_buy	-2324
lex	-2325
_hop	-2326
_0,000	-2327
_board	-2328
_root	-2329
_review	-2330
_chance	-2331
_risk	-2332
_conver	-2333
let	-2334
_lock	-2335
_systems	-2336
rote	-2337
_canad	-2338
eg	-2339
_obama	-2340
_rev	-2341
_upload	-2342
_average	-2343
_broad	-2344
_bind	-2345
_mis	-2346
_latest	-2347
_parts	-2348
aged	-2349
aff	-2350
wor	-2351
wr	-2352
_specify	-2353
_pen	-2354
_contact	-2355
_appl	-2356
_region	-2357
_margin	-2358
_serious	-2359
_hi	-2360
_myself	-2361
_article	-2362
_define	-2363
ograph	-2364
_gun	-2365
_logic	-2366
nes	-2367
_section	-2368
_confir	-2369
_que	-2370
_setup	-2371
_tests	-2372
ob	-2373
_giving	-2374
_cast	-2375
_meaning	-2376
_categ	-2377
ball	-2378
_pages	-2379
_rule	-2380
_bud	-2381
_looked	-2382
_uk	-2383
_stra	-2384
_wrote	-2385
sole	-2386
irect	-2387
_leav	-2388
_cra	-2389
_wants	-2390
_ability	-2391
_friends	-2392
_suff	-2393
ude	-2394
_bound	-2395
_america	-2396
_china	-2397
untu	-2398
reg	-2399
_delete	-2400
_upon	-2401
_led	-2402
_bor	-2403
_bank	-2404
ulate	-2405
erman	-2406
_weeks	-2407
_despite	-2408
_legal	-2409
_consid	-2410
_asking	-2411
oke	-2412
_showing	-2413
_style	-2414
_prefer	-2415
_offer	-2416
_teach	-2417
_foreign	-2418
ips	-2419
resp	-2420
_star	-2421
_quickly	-2422
atives	-2423
_loss	-2424
_aust	-2425
_surpr	-2426
ithm	-2427
_scen	-2428
_road	-2429
_cand	-2430
_basis	-2431
_absol	-2432
_decided	-2433
like	-2434
_sens	-2435
_mill	-2436
_gain	-2437
_scroll	-2438
_infl	-2439
_spring	-2440
ners	-2441
_deli	-2442
_ran	-2443
_tom	-2444
use	-2445
_revenue	-2446
_mysql	-2447
_hot	-2448
_double	-2449
_detail	-2450
_dru	-2451
_gra	-2452
_secret	-2453
_threat	-2454
_named	-2455
_subject	-2456
uit	-2457
soft	-2458
ourn	-2459
af	-2460
_huge	-2461
_linux	-2462
_modify	-2463
_heav	-2464
_york	-2465
_san	-2466
_anyway	-2467
_bottom	-2468
_tools	-2469
uly	-2470
umb	-2471
_gave	-2472
_execute	-2473
_updated	-2474
_login	-2475
_$0	-2476
_woman	-2477
_mobile	-2478
_aware	-2479
_manager	-2480
_adjust	-2481
_attach	-2482
rome	-2483
_none	-2484
_cult	-2485
_mid	-2486
ceed	-2487
_static	-2488
_studio	-2489
_pet	-2490
_ubuntu	-2491
istic	-2492
_mist	-2493
ises	-2494
_devices	-2495
_contrib	-2496
_answers	-2497
_convers	-2498
vant	-2499
_console	-2500
_unit	-2501
_choice	-2502
_strings	-2503
_heard	-2504
_speak	-2505
_wish	-2506
eresting	-2507
_mix	-2508
_apple	-2509
itely	-2510
_reports	-2511
phone	-2512
_green	-2513
_hear	-2514
_round	-2515
flow	-2516
ropriate	-2517
_deep	-2518
_consist	-2519
_trouble	-2520
_ensure	-2521
_header	-2522
_union	-2523
_menu	-2524
cket	-2525
utor	-2526
cont	-2527
_ps	-2528
_hon	-2529
_zero	-2530
_layout	-2531
_cash	-2532
_ready	-2533
_earth	-2534
off	-2535
ought	-2536
_appe	-2537
tes	-2538
_sil	-2539
_cook	-2540
_depends	-2541
_ui	-2542
_educ	-2543
_active	-2544
_extern	-2545
_00th	-2546
_authent	-2547
usion	-2548
_00,000	-2549
mented	-2550
_hey	-2551
_ahead	-2552
_receive	-2553
_leaders	-2554
sec	-2555
_civ	-2556
_brit	-2557
uted	-2558
_clearly	-2559
_sold	-2560
_mother	-2561
cer	-2562
ades	-2563
cast	-2564
ley	-2565
_render	-2566
nel	-2567
_height	-2568
_subs	-2569
_scient	-2570
_areas	-2571
_subst	-2572
_concept	-2573
_feed	-2574
encies	-2575
_faster	-2576
_hell	-2577
chan	-2578
_killed	-2579
_nearly	-2580
ume	-2581
_paper	-2582
_bur	-2583
ledge	-2584
_father	-2585
sequ	-2586
ta	-2587
how	-2588
_son	-2589
_mov	-2590
_knows	-2591
_pip	-2592
_schem	-2593
_prin	-2594
ablish	-2595
_turned	-2596
_synt	-2597
_walk	-2598
_expand	-2599
_sample	-2600
_title	-2601
eries	-2602
_accom	-2603
he	-2604
_gone	-2605
_west	-2606
lying	-2607
ugg	-2608
ana	-2609
df	-2610
_fal	-2611
_aj	-2612
_ep	-2613
ma	-2614
oding	-2615
_intell	-2616
_doub	-2617
_retrie	-2618
_oil	-2619
_slight	-2620
_frequ	-2621
_notice	-2622
_ten	-2623
_equal	-2624
_age	-2625
_virtual	-2626
ees	-2627
erested	-2628
fr	-2629
_advant	-2630
_music	-2631
more	-2632
cil	-2633
_crash	-2634
_000%	-2635
_trick	-2636
_esc	-2637
_reasons	-2638
_dav	-2639
_keys	-2640
ciate	-2641
_rich	-2642
_heart	-2643
_shouldn	-2644
_purpose	-2645
_impl	-2646
_hy	-2647
_larger	-2648
_analy	-2649
_suspect	-2650
_overall	-2651
respond	-2652
_removed	-2653
key	-2654
_sched	-2655
_happy	-2656
_street	-2657
_status	-2658
_vote	-2659
fo	-2660
_sto	-2661
_passing	-2662
iday	-2663
ender	-2664
_interp	-2665
_cit	-2666
_inj	-2667
_measure	-2668
based	-2669
_cover	-2670
_eval	-2671
rael	-2672
_sounds	-2673
_trust	-2674
ny	-2675
_der	-2676
_lack	-2677
etch	-2678
_mur	-2679
_began	-2680
_plans	-2681
_shot	-2682
bs	-2683
ortunity	-2684
_candid	-2685
_respond	-2686
_fully	-2687
_split	-2688
_seg	-2689
_german	-2690
_remote	-2691
_luck	-2692
_prec	-2693
_club	-2694
ifically	-2695
ster	-2696
_apps	-2697
_extreme	-2698
_piece	-2699
ging	-2700
_bat	-2701
_demand	-2702
_thous	-2703
_soci	-2704
_origin	-2705
_played	-2706
_levels	-2707
_loaded	-2708
ously	-2709
abled	-2710
_proced	-2711
_hur	-2712
anger	-2713
_became	-2714
_bra	-2715
osp	-2716
_pointer	-2717
_views	-2718
_tree	-2719
attle	-2720
_travel	-2721
ularly	-2722
_held	-2723
_prep	-2724
force	-2725
iced	-2726
_belie	-2727
_docs	-2728
_grad	-2729
ends	-2730
_costs	-2731
_hash	-2732
_guy	-2733
_steps	-2734
sing	-2735
_ult	-2736
_oppos	-2737
_branch	-2738
_living	-2739
_ios	-2740
_syntax	-2741
_logg	-2742
_laws	-2743
_israel	-2744
_wed	-2745
_film	-2746
_whose	-2747
_himself	-2748
_liber	-2749
_wel	-2750
acing	-2751
_shared	-2752
_picture	-2753
ordin	-2754
_jobs	-2755
_pc	-2756
_mechan	-2757
iment	-2758
_arri	-2759
_civil	-2760
ze	-2761
_driver	-2762
_bug	-2763
_maxim	-2764
_pow	-2765
_sle	-2766
_catch	-2767
_ri	-2768
_starts	-2769
_ajax	-2770
_seconds	-2771
_exists	-2772
_league	-2773
_strugg	-2774
_alone	-2775
orage	-2776
_nu	-2777
_failed	-2778
_hom	-2779
_bey	-2780
_instit	-2781
_shoot	-2782
_primary	-2783
itory	-2784
lection	-2785
_reve	-2786
ario	-2787
aging	-2788
_march	-2789
_limited	-2790
da	-2791
_tur	-2792
mp	-2793
_fourth	-2794
_fel	-2795
_mich	-2796
_dup	-2797
_spent	-2798
_react	-2799
_wide	-2800
_gas	-2801
_adm	-2802
_finding	-2803
_beyond	-2804
_continu	-2805
_smart	-2806
_transl	-2807
_acqu	-2808
_reb	-2809
_town	-2810
_regist	-2811
_pal	-2812
ences	-2813
_natural	-2814
_amaz	-2815
ruct	-2816
ffic	-2817
_width	-2818
_managed	-2819
urch	-2820
_austral	-2821
_uns	-2822
_compar	-2823
igr	-2824
_jan	-2825
ns	-2826
_trade	-2827
rought	-2828
_popular	-2829
_upgr	-2830
_knew	-2831
_mount	-2832
_ben	-2833
_places	-2834
_0%	-2835
issions	-2836
sl	-2837
_guide	-2838
_asp	-2839
_mal	-2840
_closed	-2841
aks	-2842
_putting	-2843
_actions	-2844
_analys	-2845
_smaller	-2846
_cloud	-2847
_flag	-2848
isl	-2849
change	-2850
_checked	-2851
_remains	-2852
_workers	-2853
_staff	-2854
_dim	-2855
_weap	-2856
rix	-2857
_indeed	-2858
_tele	-2859
_sets	-2860
iff	-2861
_arrest	-2862
_chief	-2863
antly	-2864
_vo	-2865
_moved	-2866
_washing	-2867
fact	-2868
_council	-2869
_angular	-2870
_links	-2871
_park	-2872
_lives	-2873
_modern	-2874
_dro	-2875
_doll	-2876
oss	-2877
_liter	-2878
ctors	-2879
_meant	-2880
ung	-2881
_nation	-2882
_visit	-2883
_central	-2884
_reduce	-2885
_chrome	-2886
str	-2887
_income	-2888
_grid	-2889
_master	-2890
clear	-2891
_ple	-2892
_quality	-2893
_greater	-2894
_disapp	-2895
_rub	-2896
_purch	-2897
_meeting	-2898
rel	-2899
_produce	-2900
_vector	-2901
_shell	-2902
_und	-2903
_overr	-2904
_somehow	-2905
anced	-2906
_rot	-2907
ibility	-2908
_english	-2909
_hosp	-2910
_sand	-2911
def	-2912
_conserv	-2913
_favor	-2914
zy	-2915
_false	-2916
_buff	-2917
ighb	-2918
_demon	-2919
tion	-2920
_pair	-2921
_boy	-2922
_neighb	-2923
list	-2924
_drag	-2925
oming	-2926
_reflect	-2927
ression	-2928
ba	-2929
_org	-2930
_weight	-2931
_hands	-2932
_inn	-2933
_exc	-2934
_deg	-2935
_forces	-2936
_hund	-2937
_relig	-2938
hold	-2939
_entry	-2940
_towards	-2941
_dynamic	-2942
_counter	-2943
_repos	-2944
_extract	-2945
_legisl	-2946
_hundred	-2947
fered	-2948
apan	-2949
_rid	-2950
idden	-2951
_storage	-2952
_shut	-2953
tee	-2954
_king	-2955
_opin	-2956
_layer	-2957
_dial	-2958
_clint	-2959
_refer	-2960
_unable	-2961
uth	-2962
_trigger	-2963
add	-2964
_medical	-2965
_duplic	-2966
_tutor	-2967
ops	-2968
_benefit	-2969
duct	-2970
pace	-2971
_gold	-2972
_assist	-2973
_bab	-2974
_compile	-2975
_growing	-2976
_obtain	-2977
ram	-2978
_route	-2979
ata	-2980
ula	-2981
_models	-2982
_caused	-2983
_export	-2984
_carry	-2985
_becomes	-2986
_brought	-2987
_poor	-2988
_japan	-2989
uel	-2990
_er	-2991
_sport	-2992
_camera	-2993
_creates	-2994
gers	-2995
_science	-2996
_native	-2997
_mi	-2998
_info	-2999
ivity	-3000
_accompl	-3001
_theory	-3002
oses	-3003
_spot	-3004
_sending	-3005
_student	-3006
_matrix	-3007
ald	-3008
aled	-3009
bar	-3010
_entity	-3011
_scope	-3012
_anti	-3013
-0	-3014
class	-3015
_lic	-3016
_stock	-3017
_compare	-3018
hood	-3019
_veh	-3020
ino	-3021
_cache	-3022
_poll	-3023
_advice	-3024
cription	-3025
_linked	-3026
_stuck	-3027
_0d	-3028
_coordin	-3029
_stick	-3030
_coach	-3031
_plot	-3032
_journ	-3033
_causing	-3034
cal	-3035
ares	-3036
look	-3037
pu	-3038
_prem	-3039
ught	-3040
_clinton	-3041
nings	-3042
lim	-3043
_scale	-3044
field	-3045
uary	-3046
_incor	-3047
_skill	-3048
atory	-3049
_+	-3050
_quot	-3051
_citiz	-3052
_rom	-3053
_equival	-3054
bc	-3055
isions	-3056
_alloc	-3057
_symb	-3058
arant	-3059
_editor	-3060
_economy	-3061
_dece	-3062
_gar	-3063
_worry	-3064
semb	-3065
pendent	-3066
ublican	-3067
_syri	-3068
_obvious	-3069
itter	-3070
_token	-3071
_letter	-3072
_0-0	-3073
_roll	-3074
_apart	-3075
xy	-3076
_parents	-3077
_imagine	-3078
_disp	-3079
_desk	-3080
sia	-3081
rast	-3082
_poly	-3083
_charge	-3084
itable	-3085
overed	-3086
_unlike	-3087
ining	-3088
mental	-3089
_blue	-3090
_church	-3091
ype	-3092
_je	-3093
_anybody	-3094
_credit	-3095
_college	-3096
_queries	-3097
_wild	-3098
_icon	-3099
ented	-3100
icles	-3101
inst	-3102
_highly	-3103
top	-3104
_leading	-3105
outer	-3106
_monday	-3107
astic	-3108
_submit	-3109
_propos	-3110
okes	-3111
_grand	-3112
_associ	-3113
_symbol	-3114
_guarant	-3115
_teams	-3116
_tor	-3117
_mostly	-3118
_friday	-3119
tle	-3120
_enj	-3121
_fa	-3122
code	-3123
_mail	-3124
_monitor	-3125
_oct	-3126
name	-3127
_vs	-3128
_paid	-3129
_danger	-3130
_stren	-3131
_spread	-3132
_ended	-3133
_destro	-3134
_dark	-3135
_loading	-3136
_sources	-3137
_onto	-3138
_cells	-3139
_nature	-3140
_behavi	-3141
chron	-3142
_indic	-3143
_fetch	-3144
gth	-3145
_helpful	-3146
_county	-3147
_conflic	-3148
_lif	-3149
_jack	-3150
izes	-3151
_cat	-3152
_traffic	-3153
_die	-3154
_commer	-3155
rend	-3156
_race	-3157
_forms	-3158
ains	-3159
_tues	-3160
gen	-3161
_journal	-3162
_fails	-3163
_fear	-3164
_tick	-3165
_regul	-3166
ham	-3167
_russia	-3168
_opening	-3169
_tv	-3170
_dan	-3171
_east	-3172
_evalu	-3173
imin	-3174
pa	-3175
tr	-3176
_applied	-3177
_tuesday	-3178
_emerg	-3179
_impos	-3180
_jump	-3181
_dialog	-3182
_decide	-3183
_stage	-3184
_posted	-3185
_victim	-3186
_spend	-3187
oon	-3188
_hill	-3189
_solved	-3190
idents	-3191
_hol	-3192
_signal	-3193
_mc	-3194
_estim	-3195
_safety	-3196
ested	-3197
_proof	-3198
_wra	-3199
_sell	-3200
_twice	-3201
_fairly	-3202
sian	-3203
_swe	-3204
arently	-3205
_effects	-3206
_helped	-3207
icitly	-3208
_waiting	-3209
_brand	-3210
_histor	-3211
fort	-3212
_leader	-3213
_agency	-3214
_seven	-3215
_capac	-3216
_felt	-3217
_bull	-3218
_assemb	-3219
_sd	-3220
_noticed	-3221
_corpor	-3222
_tex	-3223
_tested	-3224
_opened	-3225
_fan	-3226
_weak	-3227
_sleep	-3228
_prime	-3229
ingly	-3230
_lose	-3231
_disk	-3232
_score	-3233
0000	-3234
_supply	-3235
_lots	-3236
_leaving	-3237
_surv	-3238
_sum	-3239
_older	-3240
_champ	-3241
thern	-3242
_hack	-3243
_cs	-3244
olution	-3245
_society	-3246
_eight	-3247
_pdf	-3248
_wife	-3249
_strange	-3250
_january	-3251
term	-3252
ological	-3253
_sites	-3254
_inject	-3255
_died	-3256
ional	-3257
_predict	-3258
_mv	-3259
_phil	-3260
_rates	-3261
etic	-3262
_label	-3263
_border	-3264
_canada	-3265
_suppose	-3266
iers	-3267
_enjoy	-3268
_serial	-3269
_david	-3270
_influ	-3271
ey	-3272
_integer	-3273
lock	-3274
iliar	-3275
_explan	-3276
_sir	-3277
acle	-3278
press	-3279
_sept	-3280
_prove	-3281
_scene	-3282
_kids	-3283
_budget	-3284
utely	-3285
_ram	-3286
arr	-3287
_india	-3288
here	-3289
_scal	-3290
_girl	-3291
_initi	-3292
_threads	-3293
iving	-3294
_turns	-3295
_square	-3296
_books	-3297
iles	-3298
_encrypt	-3299
_surve	-3300
ocol	-3301
gex	-3302
_june	-3303
_calif	-3304
_accur	-3305
_guid	-3306
ened	-3307
_rock	-3308
_cool	-3309
_officer	-3310
_prices	-3311
_visible	-3312
_0000s	-3313
unk	-3314
_showed	-3315
_beaut	-3316
mer	-3317
_excel	-3318
_manu	-3319
_signed	-3320
_resolve	-3321
_sem	-3322
itude	-3323
_parse	-3324
_techni	-3325
_regex	-3326
_resist	-3327
_movie	-3328
ensions	-3329
_=	-3330
_frag	-3331
right	-3332
_saved	-3333
_biggest	-3334
_damage	-3335
_servers	-3336
_keeping	-3337
_plus	-3338
_neither	-3339
_markets	-3340
_summer	-3341
_000,000	-3342
_gre	-3343
_geor	-3344
_justice	-3345
_clients	-3346
_buttons	-3347
_fish	-3348
_aug	-3349
_drink	-3350
_crow	-3351
_updates	-3352
_git	-3353
ha	-3354
_lists	-3355
_afric	-3356
_surface	-3357
_tags	-3358
ese	-3359
iny	-3360
_quant	-3361
apt	-3362
_thurs	-3363
forms	-3364
_wednes	-3365
_auto	-3366
_rat	-3367
_welcome	-3368
_defense	-3369
_matches	-3370
omb	-3371
istan	-3372
_radio	-3373
_door	-3374
_fans	-3375
_blood	-3376
_constit	-3377
_freed	-3378
_efforts	-3379
_placed	-3380
_daily	-3381
do	-3382
erson	-3383
mon	-3384
_asyn	-3385
_q0	-3386
_clar	-3387
enge	-3388
idential	-3389
ril	-3390
works	-3391
_maximum	-3392
erve	-3393
_arrays	-3394
_drug	-3395
_nodes	-3396
_notific	-3397
_enable	-3398
_ment	-3399
_shape	-3400
_aim	-3401
ube	-3402
_causes	-3403
_conduct	-3404
_hous	-3405
_tempor	-3406
_career	-3407
au	-3408
_binary	-3409
_chart	-3410
asks	-3411
akes	-3412
_prison	-3413
omet	-3414
inese	-3415
_volume	-3416
_usage	-3417
_flex	-3418
_diag	-3419
ech	-3420
_nove	-3421
_flash	-3422
_opinion	-3423
lam	-3424
_panel	-3425
_ax	-3426
ole	-3427
_kept	-3428
iring	-3429
enty	-3430
_paul	-3431
_secure	-3432
_gith	-3433
xic	-3434
_chinese	-3435
_github	-3436
_proceed	-3437
pe	-3438
_parli	-3439
_debug	-3440
_tri	-3441
uled	-3442
_restart	-3443
_terror	-3444
_balance	-3445
ornia	-3446
_battle	-3447
_british	-3448
_forget	-3449
_largest	-3450
_attacks	-3451
_hence	-3452
_batter	-3453
ertain	-3454
igration	-3455
_truth	-3456
_van	-3457
aming	-3458
_fem	-3459
hips	-3460
_odd	-3461
_inher	-3462
_bitco	-3463
the	-3464
_ter	-3465
la	-3466
_encour	-3467
_forg	-3468
oded	-3469
_datas	-3470
_debugg	-3471
_ton	-3472
_wire	-3473
_climate	-3474
_hidden	-3475
_diction	-3476
_temper	-3477
room	-3478
contro	-3479
_debt	-3480
_max	-3481
_handler	-3482
_desired	-3483
ai	-3484
_bigger	-3485
clip	-3486
_stores	-3487
_bir	-3488
_vert	-3489
_ship	-3490
enses	-3491
_eth	-3492
round	-3493
_firm	-3494
_anymore	-3495
_claims	-3496
_digital	-3497
apter	-3498
_solid	-3499
_tend	-3500
_brain	-3501
lines	-3502
_kick	-3503
_senate	-3504
_embed	-3505
_fig	-3506
actions	-3507
_minimum	-3508
_hide	-3509
raft	-3510
ncy	-3511
_judge	-3512
ished	-3513
_profess	-3514
pan	-3515
_formula	-3516
_russian	-3517
_burn	-3518
uster	-3519
_az	-3520
oper	-3521
_reality	-3522
_grant	-3523
_chain	-3524
_july	-3525
_profile	-3526
rench	-3527
_ded	-3528
ober	-3529
_posts	-3530
_april	-3531
_station	-3532
_eyes	-3533
_sunday	-3534
_doubt	-3535
_tells	-3536
_rare	-3537
_island	-3538
lin	-3539
_prompt	-3540
_lad	-3541
_serve	-3542
idge	-3543
_kore	-3544
_ine	-3545
_mine	-3546
_mouse	-3547
dom	-3548
bi	-3549
_tour	-3550
_alle	-3551
_minor	-3552
ening	-3553
_destroy	-3554
_iphone	-3555
men	-3556
_mad	-3557
_checks	-3558
erc	-3559
_decre	-3560
eline	-3561
_ec	-3562
pective	-3563
_rough	-3564
_october	-3565
_blog	-3566
estern	-3567
_desktop	-3568
ulated	-3569
_forced	-3570
ption	-3571
_belong	-3572
_apache	-3573
_powers	-3574
_band	-3575
ael	-3576
_satur	-3577
ipp	-3578
_sheet	-3579
_deliver	-3580
ications	-3581
_rap	-3582
_plant	-3583
cles	-3584
_iran	-3585
_achie	-3586
ughter	-3587
band	-3588
using	-3589
_cru	-3590
_fresh	-3591
_seemed	-3592
ximately	-3593
gb	-3594
_islam	-3595
_army	-3596
_worse	-3597
_facing	-3598
_factor	-3599
_feeling	-3600
idering	-3601
bert	-3602
_ignore	-3603
ooth	-3604
iet	-3605
iant	-3606
_edge	-3607
_hang	-3608
_reached	-3609
_weird	-3610
_telling	-3611
_spr	-3612
archers	-3613
_eclip	-3614
_mathem	-3615
ga	-3616
_crime	-3617
_greatly	-3618
oti	-3619
_flat	-3620
_unc	-3621
_ira	-3622
_linear	-3623
_speech	-3624
_twitter	-3625
_pix	-3626
_tro	-3627
_pure	-3628
omp	-3629
_mistake	-3630
_theore	-3631
_delay	-3632
_princi	-3633
_wik	-3634
_august	-3635
_aspnet	-3636
_pool	-3637
kn	-3638
_tun	-3639
_amb	-3640
_hasn	-3641
oph	-3642
_bytes	-3643
my	-3644
_parall	-3645
_tasks	-3646
_trend	-3647
_qual	-3648
_willing	-3649
_spaces	-3650
_ice	-3651
arm	-3652
_chair	-3653
_grab	-3654
_eclipse	-3655
_dj	-3656
menting	-3657
orters	-3658
uals	-3659
_senior	-3660
ained	-3661
_illeg	-3662
_satis	-3663
_broken	-3664
igence	-3665
_heavy	-3666
gets	-3667
_infin	-3668
inct	-3669
ager	-3670
_fra	-3671
_scan	-3672
ublicans	-3673
craft	-3674
_eat	-3675
defined	-3676
_stopped	-3677
_freedom	-3678
zz	-3679
_hook	-3680
ustr	-3681
_eye	-3682
_alt	-3683
_mari	-3684
_driving	-3685
urance	-3686
_guard	-3687
_bed	-3688
_vill	-3689
_debate	-3690
_cris	-3691
text	-3692
itect	-3693
_mart	-3694
around	-3695
_charges	-3696
_aspect	-3697
rief	-3698
_cup	-3699
_learned	-3700
_hoping	-3701
lly	-3702
ych	-3703
_channel	-3704
amb	-3705
_peace	-3706
_usb	-3707
_bunch	-3708
igate	-3709
_bitcoin	-3710
_backup	-3711
_adop	-3712
_adds	-3713
_minute	-3714
iest	-3715
_spokes	-3716
imately	-3717
dered	-3718
_deleg	-3719
_owners	-3720
_culture	-3721
clus	-3722
rs	-3723
_volt	-3724
loaded	-3725
istics	-3726
_instant	-3727
_ali	-3728
_protest	-3729
_labor	-3730
_susp	-3731
_ww	-3732
ressed	-3733
_runtime	-3734
_ends	-3735
_nuclear	-3736
_plain	-3737
install	-3738
hib	-3739
_raised	-3740
_attor	-3741
_twe	-3742
_jew	-3743
_transp	-3744
_trial	-3745
_audio	-3746
what	-3747
inesses	-3748
fs	-3749
_queue	-3750
_rails	-3751
_exerc	-3752
_buffer	-3753
_confirm	-3754
emy	-3755
ondon	-3756
_brother	-3757
_manip	-3758
ntly	-3759
_observ	-3760
_explore	-3761
_comfort	-3762
ifying	-3763
_critic	-3764
cr	-3765
_photos	-3766
_pointed	-3767
_shad	-3768
_heat	-3769
ban	-3770
_london	-3771
fox	-3772
_theme	-3773
_spell	-3774
_kern	-3775
_disco	-3776
_dock	-3777
_feet	-3778
mark	-3779
_dream	-3780
ky	-3781
_iraq	-3782
_blocks	-3783
sib	-3784
aur	-3785
sers	-3786
_macro	-3787
_jer	-3788
_font	-3789
_reject	-3790
_bes	-3791
_dise	-3792
_flight	-3793
bed	-3794
_blank	-3795
_negoti	-3796
_song	-3797
_spir	-3798
_hus	-3799
_located	-3800
_wood	-3801
_scr	-3802
aches	-3803
bon	-3804
_toward	-3805
_numer	-3806
_mvc	-3807
_baby	-3808
rupt	-3809
nces	-3810
_coal	-3811
_feb	-3812
_scripts	-3813
_shift	-3814
write	-3815
_tough	-3816
_western	-3817
_crim	-3818
_warning	-3819
_cpu	-3820
_fly	-3821
_fort	-3822
_modules	-3823
orter	-3824
ipped	-3825
dden	-3826
_capture	-3827
_cars	-3828
_michael	-3829
_famil	-3830
_keeps	-3831
ded	-3832
_magic	-3833
_agre	-3834
_@	-3835
_cold	-3836
eless	-3837
_firefox	-3838
_failure	-3839
ams	-3840
_noted	-3841
_mut	-3842
_highest	-3843
_align	-3844
_wrap	-3845
_holding	-3846
_pros	-3847
file	-3848
_stories	-3849
_focused	-3850
essional	-3851
_occurs	-3852
_cities	-3853
_generic	-3854
_schools	-3855
_dut	-3856
_kid	-3857
ruary	-3858
_consequ	-3859
part	-3860
_beat	-3861
_totally	-3862
_birth	-3863
while	-3864
_voters	-3865
_enabled	-3866
ifier	-3867
_sup	-3868
_sudden	-3869
_chem	-3870
_satisf	-3871
_sexual	-3872
_voice	-3873
_factors	-3874
_inner	-3875
_fat	-3876
_raise	-3877
_frank	-3878
_cards	-3879
_notes	-3880
_opens	-3881
_drivers	-3882
_enforce	-3883
isation	-3884
lled	-3885
known	-3886
icing	-3887
istr	-3888
_segment	-3889
_honest	-3890
_medic	-3891
cons	-3892
_dont	-3893
_inspect	-3894
_reset	-3895
_goals	-3896
_psych	-3897
ango	-3898
_topic	-3899
_recurs	-3900
_century	-3901
_bag	-3902
frame	-3903
_weapons	-3904
_migr	-3905
_texas	-3906
log	-3907
_beautif	-3908
_abst	-3909
_cele	-3910
_mir	-3911
icip	-3912
stood	-3913
_sea	-3914
_promot	-3915
_span	-3916
_refresh	-3917
riage	-3918
_french	-3919
_remind	-3920
_bund	-3921
_brief	-3922
_lapt	-3923
_disable	-3924
_lets	-3925
_fuck	-3926
_turning	-3927
_compat	-3928
_rise	-3929
_logs	-3930
_listed	-3931
_units	-3932
_mel	-3933
_crisis	-3934
ker	-3935
_celebr	-3936
_whe	-3937
sa	-3938
_oracle	-3939
_realize	-3940
arks	-3941
_termin	-3942
_pin	-3943
_nom	-3944
_entered	-3945
_raw	-3946
_expans	-3947
play	-3948
_persist	-3949
_figured	-3950
osing	-3951
_owner	-3952
_bow	-3953
ception	-3954
_gal	-3955
_knowing	-3956
_scre	-3957
iation	-3958
uild	-3959
_ange	-3960
_planet	-3961
_hint	-3962
_pun	-3963
base	-3964
_nested	-3965
_indian	-3966
ificate	-3967
_exclud	-3968
_batch	-3969
_circum	-3970
_follows	-3971
_clicked	-3972
_assets	-3973
_james	-3974
_dollars	-3975
nd	-3976
_ruby	-3977
_acad	-3978
connect	-3979
_promise	-3980
_doctor	-3981
_entries	-3982
ienced	-3983
_extend	-3984
_binding	-3985
_saving	-3986
anc	-3987
_pu	-3988
_degree	-3989
igured	-3990
_nine	-3991
_reli	-3992
_hello	-3993
_stated	-3994
gl	-3995
_cance	-3996
_funding	-3997
_studies	-3998
stream	-3999
_adapt	-4000
_cas	-4001
path	-4002
cp	-4003
airs	-4004
_kernel	-4005
_floor	-4006
_mcc	-4007
_alleged	-4008
_attract	-4009
izations	-4010
yal	-4011
_proxy	-4012
_hall	-4013
_mos	-4014
_lawy	-4015
_decades	-4016
_muslim	-4017
_massive	-4018
ctional	-4019
_util	-4020
_declar	-4021
ructure	-4022
_maps	-4023
_farm	-4024
_afford	-4025
_yester	-4026
_occas	-4027
_upgrade	-4028
_draft	-4029
_shall	-4030
ses	-4031
_fis	-4032
_dealing	-4033
ida	-4034
_battery	-4035
_voltage	-4036
rary	-4037
going	-4038
_azure	-4039
new	-4040
_manual	-4041
_missed	-4042
_corner	-4043
_inval	-4044
host	-4045
_www	-4046
_alert	-4047
_fif	-4048
_offers	-4049
_closer	-4050
_cycle	-4051
_boost	-4052
_prosec	-4053
abor	-4054
_dog	-4055
_django	-4056
map	-4057
_horiz	-4058
_csv	-4059
ios	-4060
_ast	-4061
_lie	-4062
_screens	-4063
_reform	-4064
_agent	-4065
_dates	-4066
ortion	-4067
conf	-4068
ici	-4069
_annual	-4070
ju	-4071
_cart	-4072
_photo	-4073
_germany	-4074
_bits	-4075
hand	-4076
celer	-4077
_talked	-4078
_circuit	-4079
_mexic	-4080
wide	-4081
lay	-4082
_deleted	-4083
_sdk	-4084
_mission	-4085
_solar	-4086
ford	-4087
_occup	-4088
_insp	-4089
_offset	-4090
etime	-4091
_conclud	-4092
_mong	-4093
_fle	-4094
_caught	-4095
_trip	-4096
_amazon	-4097
_wit	-4098
_feels	-4099
_00-00	-4100
ologies	-4101
_upper	-4102
onym	-4103
_worst	-4104
_moves	-4105
arian	-4106
_declare	-4107
_dad	-4108
ho	-4109
_closing	-4110
iling	-4111
_parties	-4112
_plane	-4113
inters	-4114
_species	-4115
_jar	-4116
ading	-4117
inger	-4118
_nar	-4119
_nobody	-4120
mail	-4121
ils	-4122
_pieces	-4123
_retail	-4124
_subsequ	-4125
_bay	-4126
_holds	-4127
_vice	-4128
_illegal	-4129
_phase	-4130
_agg	-4131
aching	-4132
_filled	-4133
ached	-4134
iders	-4135
_cove	-4136
_offered	-4137
_domin	-4138
_leads	-4139
cs	-4140
yl	-4141
_usual	-4142
_born	-4143
_plenty	-4144
che	-4145
_acceler	-4146
_lu	-4147
_cluster	-4148
_weekend	-4149
_escape	-4150
_trail	-4151
_vehicle	-4152
_elimin	-4153
_sides	-4154
ago	-4155
_hair	-4156
_loads	-4157
uations	-4158
_respons	-4159
_helping	-4160
_glass	-4161
_ital	-4162
_hun	-4163
_served	-4164
_hurt	-4165
entation	-4166
_animals	-4167
_sports	-4168
_invalid	-4169
_agreed	-4170
_annot	-4171
_doz	-4172
_driven	-4173
_planned	-4174
iences	-4175
ulf	-4176
_syria	-4177
_arbit	-4178
_donald	-4179
amm	-4180
clusion	-4181
izer	-4182
pm	-4183
_laptop	-4184
_equip	-4185
_brown	-4186
aling	-4187
angle	-4188
_scott	-4189
_willi	-4190
_hero	-4191
_incred	-4192
vision	-4193
_ham	-4194
vere	-4195
_flor	-4196
ches	-4197
_vm	-4198
ille	-4199
uing	-4200
_amend	-4201
_motor	-4202
_miles	-4203
_fired	-4204
ipping	-4205
_charged	-4206
erring	-4207
_latter	-4208
ows	-4209
_infrast	-4210
_restaur	-4211
_tries	-4212
_precise	-4213
_coast	-4214
_shar	-4215
_cooper	-4216
_truly	-4217
_logged	-4218
ablished	-4219
_emot	-4220
sd	-4221
_advert	-4222
ystem	-4223
_excell	-4224
_england	-4225
_rh	-4226
_bought	-4227
_dir	-4228
_sust	-4229
_cry	-4230
aded	-4231
_suc	-4232
_partner	-4233
_skills	-4234
rete	-4235
under	-4236
page	-4237
_flu	-4238
_centre	-4239
bre	-4240
py	-4241
_expert	-4242
_leaves	-4243
ushing	-4244
akers	-4245
_clause	-4246
_sav	-4247
_epis	-4248
_gross	-4249
raid	-4250
_matters	-4251
_profit	-4252
_merge	-4253
place	-4254
_husband	-4255
_river	-4256
_humans	-4257
_intent	-4258
_arab	-4259
_innov	-4260
_circle	-4261
_spect	-4262
_gall	-4263
_orders	-4264
_hearing	-4265
_codes	-4266
ann	-4267
level	-4268
_sv	-4269
_rang	-4270
_compos	-4271
_dropped	-4272
chang	-4273
_largely	-4274
_hyp	-4275
ray	-4276
_ga	-4277
_zo	-4278
_george	-4279
_sad	-4280
eter	-4281
_succeed	-4282
_fault	-4283
_yield	-4284
_adult	-4285
_fuel	-4286
eper	-4287
_vul	-4288
_fell	-4289
_witness	-4290
loc	-4291
_defe	-4292
_keyword	-4293
_isol	-4294
_alex	-4295
_zone	-4296
_banks	-4297
ums	-4298
_0th	-4299
osen	-4300
aked	-4301
sibility	-4302
_mand	-4303
_ii	-4304
bing	-4305
_fiscal	-4306
_bon	-4307
_mike	-4308
_byte	-4309
_girls	-4310
_afraid	-4311
ques	-4312
_mp	-4313
_tight	-4314
_letters	-4315
_rac	-4316
_0x	-4317
_bond	-4318
arters	-4319
_murder	-4320
_politic	-4321
_snipp	-4322
_ken	-4323
wood	-4324
_sale	-4325
_reverse	-4326
_losing	-4327
_alph	-4328
_purs	-4329
ius	-4330
ked	-4331
_animal	-4332
_covered	-4333
rd	-4334
_ring	-4335
_invent	-4336
oms	-4337
_reduced	-4338
iled	-4339
_mapping	-4340
_gui	-4341
_storing	-4342
_slide	-4343
fol	-4344
_ideal	-4345
_rank	-4346
ifies	-4347
rible	-4348
hol	-4349
ht	-4350
_defend	-4351
_smooth	-4352
_france	-4353
juana	-4354
_dism	-4355
_involve	-4356
_funds	-4357
_wat	-4358
ka	-4359
_recip	-4360
ros	-4361
_faith	-4362
_sitting	-4363
_locally	-4364
_paying	-4365
rec	-4366
_harder	-4367
_videos	-4368
_joined	-4369
_versus	-4370
_bootst	-4371
yle	-4372
uts	-4373
_disease	-4374
_lands	-4375
_acquis	-4376
_drawing	-4377
_wp	-4378
_ordered	-4379
_issued	-4380
_inputs	-4381
_repeat	-4382
_styles	-4383
faces	-4384
_aftern	-4385
_selling	-4386
_variety	-4387
_dll	-4388
_patch	-4389
_conven	-4390
_assault	-4391
ado	-4392
_killing	-4393
_figures	-4394
_emails	-4395
_sector	-4396
_schema	-4397
_roughly	-4398
_dc	-4399
_wan	-4400
_wave	-4401
_smith	-4402
_rect	-4403
ecess	-4404
_din	-4405
uling	-4406
orrow	-4407
_mere	-4408
_strict	-4409
_rent	-4410
_crazy	-4411
_docker	-4412
_verify	-4413
ds	-4414
_spin	-4415
auth	-4416
_paths	-4417
_survey	-4418
rial	-4419
sey	-4420
_exit	-4421
ris	-4422
_license	-4423
_advoc	-4424
iate	-4425
asp	-4426
_payment	-4427
kins	-4428
estic	-4429
_seek	-4430
berg	-4431
_dump	-4432
_female	-4433
bur	-4434
han	-4435
_reco	-4436
_bomb	-4437
_bash	-4438
_fant	-4439
_coff	-4440
related	-4441
_sky	-4442
aves	-4443
_unp	-4444
_logging	-4445
_oppon	-4446
_wealth	-4447
_drugs	-4448
_spirit	-4449
_dataset	-4450
_waste	-4451
uses	-4452
uries	-4453
_iterate	-4454
une	-4455
mos	-4456
_filed	-4457
ounds	-4458
_grew	-4459
_recall	-4460
_om	-4461
_lou	-4462
_pil	-4463
iance	-4464
_unn	-4465
ulator	-4466
ek	-4467
_router	-4468
ror	-4469
_anonym	-4470
_failing	-4471
_stable	-4472
_careful	-4473
_perman	-4474
_treated	-4475
_consult	-4476
_weren	-4477
_housing	-4478
aint	-4479
_ber	-4480
_shock	-4481
_bul	-4482
oked	-4483
_socket	-4484
_nations	-4485
_quotes	-4486
_ah	-4487
dn	-4488
eness	-4489
_whom	-4490
_sharing	-4491
_limits	-4492
_portion	-4493
_headers	-4494
vin	-4495
_boss	-4496
_forgot	-4497
_hate	-4498
_chosen	-4499
vm	-4500
_rig	-4501
_cant	-4502
_pitch	-4503
_mock	-4504
_plays	-4505
_florida	-4506
_gate	-4507
_advis	-4508
outh	-4509
_jen	-4510
_snow	-4511
_recei	-4512
_mort	-4513
itation	-4514
_weather	-4515
house	-4516
_cable	-4517
fc	-4518
_claimed	-4519
_taxes	-4520
_$00,000	-4521
_ssh	-4522
_aggreg	-4523
vas	-4524
_cab	-4525
_curious	-4526
_manner	-4527
_factory	-4528
_portfol	-4529
_clock	-4530
_harm	-4531
_poss	-4532
ancy	-4533
acc	-4534
lab	-4535
_suit	-4536
_combine	-4537
istry	-4538
_fol	-4539
_liqu	-4540
_prev	-4541
_xcode	-4542
gu	-4543
_cancer	-4544
_pap	-4545
_tack	-4546
_settle	-4547
essions	-4548
_scheme	-4549
_bod	-4550
_colors	-4551
_pref	-4552
_yout	-4553
coming	-4554
_capable	-4555
_finds	-4556
rier	-4557
fe	-4558
_transm	-4559
_ry	-4560
_00000	-4561
_easiest	-4562
_assess	-4563
_renew	-4564
_simpler	-4565
case	-4566
_jim	-4567
_vulner	-4568
_whereas	-4569
_bob	-4570
_shop	-4571
rian	-4572
_penal	-4573
illa	-4574
_homes	-4575
_chic	-4576
boot	-4577
edly	-4578
ki	-4579
_iron	-4580
_appoint	-4581
_thrown	-4582
_winning	-4583
_reads	-4584
_coding	-4585
-0000	-4586
_gent	-4587
_insight	-4588
_kinds	-4589
gressive	-4590
_rely	-4591
_stret	-4592
_tiny	-4593
_guest	-4594
_cloth	-4595
den	-4596
_serv	-4597
_talks	-4598
_pulled	-4599
_typical	-4600
_ath	-4601
_emp	-4602
order	-4603
_vary	-4604
_gay	-4605
_spoke	-4606
_bridge	-4607
osure	-4608
inc	-4609
_joint	-4610
_troub	-4611
_tens	-4612
_enterpr	-4613
_ids	-4614
_korea	-4615
_experts	-4616
_jail	-4617
_shif	-4618
rad	-4619
_jes	-4620
_000-	-4621
_dar	-4622
_camer	-4623
_rapid	-4624
_du	-4625
_married	-4626
_victims	-4627
_encoun	-4628
_ack	-4629
_stops	-4630
ifi	-4631
_fellow	-4632
_startup	-4633
bra	-4634
_decline	-4635
_arrived	-4636
ica	-4637
_victory	-4638
_pushed	-4639
_tow	-4640
hi	-4641
_belief	-4642
cho	-4643
_calend	-4644
_award	-4645
_hu	-4646
amental	-4647
_crack	-4648
_youtube	-4649
_manif	-4650
_rain	-4651
_faced	-4652
_spark	-4653
_skin	-4654
_worried	-4655
_carbon	-4656
_sends	-4657
isters	-4658
_picked	-4659
active	-4660
_pi	-4661
ography	-4662
inations	-4663
_franc	-4664
_thinks	-4665
_supreme	-4666
_anticip	-4667
_pak	-4668
_breath	-4669
_broke	-4670
_gro	-4671
aker	-4672
_truck	-4673
ding	-4674
_clin	-4675
antic	-4676
_lamb	-4677
entials	-4678
phere	-4679
_gree	-4680
_orient	-4681
oned	-4682
_besides	-4683
_male	-4684
xml	-4685
_attend	-4686
oking	-4687
_curs	-4688
_fi	-4689
now	-4690
ighter	-4691
_append	-4692
_decade	-4693
_depth	-4694
_weapon	-4695
_alive	-4696
_motion	-4697
_alter	-4698
facture	-4699
_unknown	-4700
col	-4701
_crew	-4702
raw	-4703
_plants	-4704
_aside	-4705
itecture	-4706
_colour	-4707
_boxes	-4708
iciency	-4709
_stars	-4710
loading	-4711
iped	-4712
_inherit	-4713
_excited	-4714
_fox	-4715
_healthy	-4716
_opposed	-4717
_margins	-4718
_chicago	-4719
_veter	-4720
_tast	-4721
_swift	-4722
_till	-4723
_excus	-4724
_outlook	-4725
_sym	-4726
mode	-4727
_stress	-4728
_lived	-4729
_stup	-4730
_partial	-4731
ashion	-4732
_aid	-4733
_noise	-4734
_thr	-4735
_beer	-4736
_silver	-4737
_lord	-4738
_oce	-4739
cat	-4740
_na	-4741
_rail	-4742
_enum	-4743
itors	-4744
sp	-4745
_criter	-4746
_labour	-4747
enges	-4748
_cuts	-4749
_cm	-4750
_africa	-4751
_refuge	-4752
odb	-4753
_bin	-4754
_bird	-4755
_folders	-4756
_copied	-4757
ville	-4758
_cheap	-4759
_reprodu	-4760
_nas	-4761
_subt	-4762
_dns	-4763
_ceo	-4764
_joining	-4765
_bare	-4766
_bear	-4767
_accused	-4768
_handled	-4769
_seeking	-4770
_patient	-4771
_bush	-4772
_applies	-4773
_jeff	-4774
_carried	-4775
_liberal	-4776
pn	-4777
_forest	-4778
_grav	-4779
_suppl	-4780
_vast	-4781
_worker	-4782
rid	-4783
_amazing	-4784
_sees	-4785
_passes	-4786
_cookie	-4787
aren	-4788
_drawn	-4789
_airport	-4790
_chat	-4791
_dram	-4792
_mainly	-4793
_expense	-4794
_strike	-4795
itz	-4796
_breaks	-4797
_evening	-4798
db	-4799
_dry	-4800
_britain	-4801
php	-4802
oo	-4803
_dow	-4804
win	-4805
_palest	-4806
_labels	-4807
_restore	-4808
_wear	-4809
rees	-4810
eration	-4811
_buying	-4812
_hotel	-4813
_afgh	-4814
_stupid	-4815
gar	-4816
_chris	-4817
llers	-4818
outs	-4819
erests	-4820
ota	-4821
_bright	-4822
state	-4823
imal	-4824
_cath	-4825
_obl	-4826
_unus	-4827
isco	-4828
_ratio	-4829
ibly	-4830
_vision	-4831
_pushing	-4832
_loan	-4833
reh	-4834
eds	-4835
_postg	-4836
_novel	-4837
bern	-4838
_vac	-4839
_writes	-4840
igned	-4841
print	-4842
_utility	-4843
_gem	-4844
asingly	-4845
_atl	-4846
erved	-4847
core	-4848
urally	-4849
ij	-4850
ivered	-4851
_ongoing	-4852
_gather	-4853
_'00	-4854
_ukrain	-4855
_lib	-4856
_concent	-4857
ston	-4858
ensity	-4859
_philos	-4860
_signs	-4861
_mayor	-4862
_gotten	-4863
_hyper	-4864
rent	-4865
_knock	-4866
_snippet	-4867
ara	-4868
_mexico	-4869
illing	-4870
agues	-4871
stances	-4872
_urls	-4873
hen	-4874
lers	-4875
ona	-4876
_editing	-4877
wall	-4878
nn	-4879
_deals	-4880
_substit	-4881
_virgin	-4882
_shel	-4883
_backend	-4884
_newly	-4885
_injury	-4886
_loops	-4887
_seat	-4888
ingu	-4889
aped	-4890
_tonight	-4891
enting	-4892
_quiet	-4893
_emph	-4894
_mary	-4895
ffered	-4896
_acknow	-4897
_samples	-4898
ypt	-4899
_stretch	-4900
_johnson	-4901
_narrow	-4902
_snap	-4903
fit	-4904
_corrup	-4905
_exclus	-4906
_walking	-4907
gered	-4908
_robert	-4909
_aws	-4910
_discl	-4911
well	-4912
_mrs	-4913
chronous	-4914
gun	-4915
_ell	-4916
_storm	-4917
_clim	-4918
_trace	-4919
rant	-4920
_mental	-4921
_afghan	-4922
_wheel	-4923
_printed	-4924
_enh	-4925
_shares	-4926
_alleg	-4927
_targets	-4928
_lies	-4929
orhood	-4930
erate	-4931
pass	-4932
_outer	-4933
iform	-4934
_cub	-4935
_classic	-4936
_sister	-4937
_puts	-4938
_abuse	-4939
_boys	-4940
bl	-4941
run	-4942
_timing	-4943
_iis	-4944
_hole	-4945
_maven	-4946
_operate	-4947
_carol	-4948
_demo	-4949
_brew	-4950
racy	-4951
_timer	-4952
_electr	-4953
_nfl	-4954
_gap	-4955
_nodejs	-4956
_metal	-4957
_compute	-4958
_faces	-4959
_peter	-4960
_ske	-4961
_trees	-4962
_combat	-4963
_wanna	-4964
_cd	-4965
_pac	-4966
_s0	-4967
_nic	-4968
racts	-4969
_arrow	-4970
click	-4971
_regions	-4972
_brings	-4973
_crypt	-4974
_bike	-4975
agon	-4976
ulations	-4977
_gard	-4978
utional	-4979
_alb	-4980
_closely	-4981
_motiv	-4982
_widget	-4983
_academ	-4984
_prepar	-4985
rem	-4986
_gentle	-4987
_formal	-4988
_blow	-4989
_arms	-4990
mas	-4991
cient	-4992
_parsing	-4993
_bodies	-4994
_pricing	-4995
_recover	-4996
_var	-4997
_0rd	-4998
_islamic	-4999
_sustain	-5000
_slowly	-5001
_recre	-5002
_magn	-5003
_chose	-5004
_stands	-5005
ano	-5006
_wil	-5007
_shr	-5008
_sick	-5009
_extent	-5010
_favour	-5011
_fashion	-5012
_coffee	-5013
_forth	-5014
esis	-5015
olic	-5016
_wake	-5017
_reader	-5018
_neut	-5019
_arc	-5020
_infect	-5021
_pod	-5022
_routes	-5023
_risks	-5024
_joe	-5025
za	-5026
_decent	-5027
_ns	-5028
_fewer	-5029
_illustr	-5030
_engage	-5031
_captain	-5032
_sync	-5033
uate	-5034
_theorem	-5035
_fro	-5036
_wis	-5037
_ride	-5038
_echo	-5039
_paste	-5040
_boole	-5041
_steve	-5042
_giant	-5043
raints	-5044
_ze	-5045
_compreh	-5046
_voted	-5047
_0nd	-5048
_emphas	-5049
_axis	-5050
backs	-5051
tt	-5052
_uniform	-5053
_dash	-5054
_eastern	-5055
_textbox	-5056
_israeli	-5057
_sin	-5058
_trib	-5059
_thom	-5060
cks	-5061
_ash	-5062
_excuse	-5063
_fbi	-5064
alf	-5065
_winter	-5066
_desire	-5067
ronic	-5068
_yours	-5069
umented	-5070
_plug	-5071
value	-5072
_wol	-5073
icious	-5074
_refused	-5075
_logical	-5076
_throws	-5077
iel	-5078
_gear	-5079
views	-5080
_argue	-5081
_acts	-5082
_hier	-5083
enture	-5084
_moon	-5085
_asset	-5086
_wrapper	-5087
_forever	-5088
_ideally	-5089
_diss	-5090
_ba	-5091
_denied	-5092
sen	-5093
_mixed	-5094
umes	-5095
_timest	-5096
_pray	-5097
_marked	-5098
_unity	-5099
_privacy	-5100
_ssl	-5101
_$0000	-5102
_african	-5103
_ticket	-5104
_sizes	-5105
_choices	-5106
_exposed	-5107
_rose	-5108
_derived	-5109
_mas	-5110
_acting	-5111
_rein	-5112
_repo	-5113
orph	-5114
_diagn	-5115
comm	-5116
char	-5117
_busy	-5118
dp	-5119
_heavily	-5120
uous	-5121
_hillary	-5122
_adapter	-5123
_ignored	-5124
ithms	-5125
_curve	-5126
_impress	-5127
_ju	-5128
_hosting	-5129
_assert	-5130
_tap	-5131
enced	-5132
_digits	-5133
_hyd	-5134
_teen	-5135
_hosted	-5136
_widely	-5137
forward	-5138
_ending	-5139
_dismiss	-5140
_explo	-5141
_votes	-5142
_hopes	-5143
onom	-5144
_copies	-5145
_legacy	-5146
wind	-5147
_lob	-5148
_los	-5149
_richard	-5150
_las	-5151
_slower	-5152
_gop	-5153
_atmos	-5154
_canvas	-5155
_ruling	-5156
_phr	-5157
_geomet	-5158
anta	-5159
_ryan	-5160
icted	-5161
_pixel	-5162
_rewrite	-5163
_bell	-5164
_wearing	-5165
_recru	-5166
_layers	-5167
_teacher	-5168
icide	-5169
_writer	-5170
_concat	-5171
_egypt	-5172
_handles	-5173
_cursor	-5174
_resc	-5175
_angle	-5176
_counts	-5177
_dollar	-5178
_streets	-5179
_outcome	-5180
_turkey	-5181
_clicks	-5182
_posting	-5183
_triv	-5184
_cos	-5185
_pleased	-5186
raction	-5187
_analyt	-5188
icial	-5189
_insist	-5190
_ped	-5191
_dict	-5192
_enemy	-5193
_comprom	-5194
_voting	-5195
_capab	-5196
_sweet	-5197
itioning	-5198
_gender	-5199
_privile	-5200
_tabs	-5201
ami	-5202
cohol	-5203
nels	-5204
_interv	-5205
_braz	-5206
_jesus	-5207
_minimal	-5208
_robot	-5209
ulating	-5210
_troops	-5211
_sanders	-5212
_modal	-5213
_sorted	-5214
_datat	-5215
_amounts	-5216
_sher	-5217
_compens	-5218
bernate	-5219
_cro	-5220
_matt	-5221
_bench	-5222
bor	-5223
_recon	-5224
eed	-5225
asure	-5226
_martin	-5227
_hung	-5228
_evol	-5229
_famous	-5230
_ow	-5231
_unex	-5232
comp	-5233
_heads	-5234
_lawyer	-5235
_movies	-5236
_iv	-5237
_jones	-5238
_padd	-5239
_galax	-5240
cut	-5241
raint	-5242
_aband	-5243
_ocean	-5244
_convin	-5245
_senator	-5246
_prints	-5247
_doctors	-5248
utation	-5249
_bundle	-5250
_bid	-5251
_edition	-5252
_jon	-5253
_severe	-5254
_routine	-5255
uting	-5256
_boolean	-5257
oles	-5258
gant	-5259
_intr	-5260
ca	-5261
uable	-5262
_appeal	-5263
_clue	-5264
_ug	-5265
_glad	-5266
_liquid	-5267
_interse	-5268
ilty	-5269
iciently	-5270
illed	-5271
_ble	-5272
_budd	-5273
rep	-5274
ya	-5275
looking	-5276
_alcohol	-5277
_multip	-5278
_warm	-5279
_funny	-5280
_chances	-5281
_syrian	-5282
config	-5283
va	-5284
_deput	-5285
isms	-5286
_youth	-5287
_lake	-5288
_legit	-5289
_cann	-5290
itting	-5291
_gn	-5292
_nearby	-5293
_presum	-5294
_wars	-5295
_kar	-5296
ckets	-5297
_proud	-5298
_msdn	-5299
_degrees	-5300
_ven	-5301
_episode	-5302
_charl	-5303
car	-5304
_plugins	-5305
_loved	-5306
igating	-5307
_preced	-5308
_pm	-5309
night	-5310
fi	-5311
_cow	-5312
_serving	-5313
_louis	-5314
_hits	-5315
erves	-5316
itioned	-5317
_brack	-5318
_analyst	-5319
_newer	-5320
_drives	-5321
_explos	-5322
oken	-5323
_armed	-5324
_surely	-5325
atedly	-5326
_thumb	-5327
_modific	-5328
paper	-5329
_downt	-5330
season	-5331
ensional	-5332
_$0,000	-5333
_locked	-5334
_jour	-5335
_apolog	-5336
_scratch	-5337
_stone	-5338
_anch	-5339
_arrange	-5340
_roles	-5341
enger	-5342
_finger	-5343
_egg	-5344
_invoke	-5345
_excess	-5346
_begins	-5347
atical	-5348
hell	-5349
_expects	-5350
ionally	-5351
_alge	-5352
_finance	-5353
_protot	-5354
_rising	-5355
_laugh	-5356
kin	-5357
_reboot	-5358
lor	-5359
berry	-5360
makers	-5361
orders	-5362
ders	-5363
_concur	-5364
_tact	-5365
_outputs	-5366
esh	-5367
ferences	-5368
_royal	-5369
_lookup	-5370
_agents	-5371
_gam	-5372
_phones	-5373
_popup	-5374
_annoy	-5375
_asia	-5376
_immigr	-5377
_bath	-5378
cted	-5379
_forum	-5380
_indexes	-5381
_unclear	-5382
_hitting	-5383
_haw	-5384
pack	-5385
_sar	-5386
_merely	-5387
_crowd	-5388
illy	-5389
_guilty	-5390
_granted	-5391
pay	-5392
_magaz	-5393
_thomas	-5394
_pipe	-5395
_lambda	-5396
uce	-5397
mo	-5398
dri	-5399
_tied	-5400
_filters	-5401
_fab	-5402
_hen	-5403
_thor	-5404
_encount	-5405
_shit	-5406
_craft	-5407
aining	-5408
hot	-5409
_elected	-5410
server	-5411
employ	-5412
_village	-5413
_ty	-5414
_bol	-5415
archy	-5416
_physics	-5417
care	-5418
_folks	-5419
_simult	-5420
abling	-5421
vis	-5422
_inline	-5423
_timeout	-5424
_garb	-5425
_multipl	-5426
holders	-5427
only	-5428
ipedia	-5429
but	-5430
_strip	-5431
_bure	-5432
_ports	-5433
_flaw	-5434
_pand	-5435
_rush	-5436
_franch	-5437
_xam	-5438
ecessary	-5439
ym	-5440
_remarks	-5441
chain	-5442
ola	-5443
_jewish	-5444
_scot	-5445
_atom	-5446
_unw	-5447
cement	-5448
_prefix	-5449
_assumed	-5450
_skip	-5451
_guns	-5452
_ipad	-5453
_sight	-5454
_mont	-5455
ounting	-5456
_builds	-5457
_filen	-5458
overflow	-5459
_bern	-5460
_discr	-5461
_jose	-5462
_grown	-5463
_marks	-5464
_ancient	-5465
weight	-5466
_hat	-5467
_ru	-5468
_intu	-5469
_angeles	-5470
_merg	-5471
_cutting	-5472
_nut	-5473
plete	-5474
_regime	-5475
_chapter	-5476
bb	-5477
_brazil	-5478
_fees	-5479
onto	-5480
_likes	-5481
_evil	-5482
_stan	-5483
_meat	-5484
_ifr	-5485
_prepare	-5486
process	-5487
date	-5488
_stab	-5489
_linq	-5490
_falling	-5491
_mit	-5492
_v0	-5493
_princ	-5494
_exceed	-5495
cape	-5496
_*	-5497
_vend	-5498
_prohib	-5499
_papers	-5500
_vall	-5501
rounding	-5502
urd	-5503
atell	-5504
_eating	-5505
_asks	-5506
_batt	-5507
entional	-5508
_shadow	-5509
_stead	-5510
_rum	-5511
osh	-5512
_copying	-5513
_rs	-5514
_disci	-5515
_owned	-5516
_qt	-5517
_deriv	-5518
ishing	-5519
_tail	-5520
_pressed	-5521
_aspects	-5522
_cycl	-5523
_ss	-5524
_paris	-5525
_unusual	-5526
ricity	-5527
igan	-5528
_stad	-5529
_paint	-5530
_rab	-5531
_chip	-5532
data	-5533
_blind	-5534
_finite	-5535
tw	-5536
_dun	-5537
_signing	-5538
ania	-5539
mmet	-5540
_advise	-5541
_catal	-5542
_lights	-5543
_ari	-5544
_injured	-5545
_lee	-5546
_ire	-5547
wid	-5548
see	-5549
_steel	-5550
_sorting	-5551
_thin	-5552
ship	-5553
utors	-5554
life	-5555
_https	-5556
_imper	-5557
check	-5558
_toronto	-5559
_solving	-5560
igen	-5561
_fest	-5562
ein	-5563
_sett	-5564
_frustr	-5565
ounded	-5566
_era	-5567
_affairs	-5568
:00	-5569
rictions	-5570
_agric	-5571
_ko	-5572
_crashes	-5573
_formed	-5574
alled	-5575
_borrow	-5576
_bean	-5577
tenance	-5578
iters	-5579
road	-5580
_authors	-5581
_tips	-5582
_pixels	-5583
_async	-5584
_ray	-5585
/0	-5586
_pump	-5587
adata	-5588
_stadium	-5589
rics	-5590
_lucky	-5591
_herself	-5592
_trivial	-5593
_tourn	-5594
_withd	-5595
_zip	-5596
_lan	-5597
kit	-5598
_honor	-5599
ographic	-5600
ighters	-5601
_facts	-5602
_speaker	-5603
_mouth	-5604
_jd	-5605
_texture	-5606
iculty	-5607
_polyg	-5608
_wifi	-5609
_surg	-5610
_sharp	-5611
_garbage	-5612
_flying	-5613
_divers	-5614
_leak	-5615
_jackson	-5616
_pulling	-5617
udi	-5618
tex	-5619
uits	-5620
_dil	-5621
len	-5622
_algebra	-5623
ini	-5624
_parag	-5625
build	-5626
_squad	-5627
_vectors	-5628
_refers	-5629
taining	-5630
_muse	-5631
_wanting	-5632
_journey	-5633
_brad	-5634
_ads	-5635
_satell	-5636
ruction	-5637
ontal	-5638
_dipl	-5639
_sacr	-5640
_sole	-5641
_wins	-5642
_ted	-5643
_flav	-5644
loads	-5645
_hover	-5646
_unic	-5647
_screw	-5648
_sorts	-5649
aneously	-5650
_lara	-5651
_estate	-5652
_edges	-5653
_cha	-5654
ander	-5655
_phen	-5656
_tcp	-5657
_trading	-5658
_blocked	-5659
_seasons	-5660
store	-5661
link	-5662
_float	-5663
_oly	-5664
war	-5665
erting	-5666
_chick	-5667
asy	-5668
_swing	-5669
_rod	-5670
_gotta	-5671
_digit	-5672
_rarely	-5673
_mongodb	-5674
_jsf	-5675
_huh	-5676
_mun	-5677
ipe	-5678
hr	-5679
_magnet	-5680
_urban	-5681
_diplom	-5682
_legend	-5683
_falls	-5684
cf	-5685
aints	-5686
_dinner	-5687
_ib	-5688
_symbols	-5689
_beach	-5690
_sqlite	-5691
_tall	-5692
_signals	-5693
_smell	-5694
_yards	-5695
_crimes	-5696
_goods	-5697
_savings	-5698
_verb	-5699
hab	-5700
equ	-5701
_luc	-5702
_olymp	-5703
_pairs	-5704
_lady	-5705
_retire	-5706
_rebuild	-5707
_subset	-5708
ioned	-5709
edy	-5710
html	-5711
iger	-5712
_matlab	-5713
_glob	-5714
_fifth	-5715
_youn	-5716
ours	-5717
ada	-5718
_survive	-5719
_pace	-5720
_bugs	-5721
omen	-5722
etary	-5723
_dogs	-5724
_ebit	-5725
_galaxy	-5726
_quote	-5727
otic	-5728
_perl	-5729
unction	-5730
_moral	-5731
points	-5732
_covers	-5733
_fake	-5734
_tomcat	-5735
iveness	-5736
_differ	-5737
ionship	-5738
esome	-5739
met	-5740
_equally	-5741
_blame	-5742
asc	-5743
_talent	-5744
_subsid	-5745
_utf	-5746
_gang	-5747
_mask	-5748
_elegant	-5749
_apis	-5750
_letting	-5751
iated	-5752
_hub	-5753
_remark	-5754
_decimal	-5755
_shortly	-5756
_robust	-5757
_closest	-5758
_frames	-5759
ket	-5760
_therap	-5761
_bbc	-5762
_medium	-5763
_duty	-5764
rate	-5765
_bills	-5766
_heading	-5767
_paren	-5768
_cookies	-5769
lets	-5770
gi	-5771
rick	-5772
_habit	-5773
_lag	-5774
_readers	-5775
_salt	-5776
unte	-5777
_diagram	-5778
anda	-5779
_films	-5780
_athlet	-5781
_crop	-5782
apse	-5783
_defence	-5784
oman	-5785
_helper	-5786
cers	-5787
_npr	-5788
_jersey	-5789
_parser	-5790
rence	-5791
issioner	-5792
_scrap	-5793
inated	-5794
_jul	-5795
_younger	-5796
_irre	-5797
_pregn	-5798
_magent	-5799
_clarify	-5800
model	-5801
service	-5802
_raising	-5803
_assumes	-5804
_earn	-5805
_fee	-5806
_desc	-5807
ipants	-5808
_lowest	-5809
_volunte	-5810
uk	-5811
_behave	-5812
_theoret	-5813
_beta	-5814
_disput	-5815
_premium	-5816
_0st	-5817
_bang	-5818
irt	-5819
_parenth	-5820
_pra	-5821
_ng	-5822
_nick	-5823
_io	-5824
_loans	-5825
she	-5826
_kil	-5827
_fulf	-5828
_shield	-5829
enn	-5830
_elev	-5831
_unre	-5832
_argued	-5833
words	-5834
_ol	-5835
ii	-5836
_fraud	-5837
_laravel	-5838
_proved	-5839
ulous	-5840
rm	-5841
_andrew	-5842
string	-5843
_temp	-5844
_tricky	-5845
ox	-5846
_ireland	-5847
_preview	-5848
_tea	-5849
formed	-5850
_sha	-5851
_yellow	-5852
_0000-00	-5853
_thick	-5854
water	-5855
_ron	-5856
_agend	-5857
_memor	-5858
erial	-5859
quest	-5860
_decor	-5861
_dress	-5862
_princip	-5863
_bub	-5864
_ugly	-5865
quality	-5866
_tan	-5867
_deeper	-5868
_discipl	-5869
enging	-5870
ato	-5871
_losses	-5872
ener	-5873
_swap	-5874
_pilot	-5875
_lawsuit	-5876
_harv	-5877
whel	-5878
_mole	-5879
_bost	-5880
_gains	-5881
_meta	-5882
_sams	-5883
_moments	-5884
_soph	-5885
_violent	-5886
_stem	-5887
_shap	-5888
friend	-5889
_tank	-5890
inet	-5891
_propag	-5892
bie	-5893
math	-5894
_crucial	-5895
_visa	-5896
_awesome	-5897
_wine	-5898
_drup	-5899
_quantum	-5900
_ukraine	-5901
_disag	-5902
orted	-5903
pected	-5904
_analog	-5905
_watched	-5906
_kim	-5907
_divide	-5908
_nh	-5909
_recy	-5910
_plastic	-5911
_heap	-5912
icity	-5913
tained	-5914
_iframe	-5915
_hypoth	-5916
_puzz	-5917
_deeply	-5918
_organic	-5919
_magento	-5920
_drupal	-5921
_lit	-5922
changed	-5923
_blu	-5924
phones	-5925
fall	-5926
_shots	-5927
_ramp	-5928
_penalty	-5929
rum	-5930
_reward	-5931
ett	-5932
_spons	-5933
_ladies	-5934
_loose	-5935
_typing	-5936
shot	-5937
_whites	-5938
jo	-5939
_wpf	-5940
_depos	-5941
_tort	-5942
utable	-5943
_fool	-5944
_valley	-5945
_desper	-5946
_taught	-5947
_pul	-5948
_ing	-5949
iments	-5950
_bars	-5951
_intend	-5952
ensus	-5953
_visited	-5954
_literal	-5955
_reserve	-5956
igible	-5957
_struck	-5958
atics	-5959
_adam	-5960
_samsung	-5961
_colon	-5962
cious	-5963
_campus	-5964
_hind	-5965
race	-5966
_caching	-5967
_cameras	-5968
aken	-5969
_swed	-5970
_taste	-5971
_alpha	-5972
_premier	-5973
_marsh	-5974
_bother	-5975
_sensor	-5976
lessly	-5977
_stays	-5978
bel	-5979
_stood	-5980
_ngin	-5981
_boston	-5982
_tip	-5983
esters	-5984
_reveal	-5985
_combo	-5986
pc	-5987
_myst	-5988
_00s	-5989
_rating	-5990
ita	-5991
_dozen	-5992
_titles	-5993
_cere	-5994
_saudi	-5995
_repair	-5996
pling	-5997
_honey	-5998
zing	-5999
_gaz	-6000
_schol	-6001
_angry	-6002
_nginx	-6003
_tok	-6004
_comma	-6005
_horse	-6006
nam	-6007
_punish	-6008
lement	-6009
_summary	-6010
_fits	-6011
_ohio	-6012
_suicide	-6013
nom	-6014
ester	-6015
_wiz	-6016
_hosts	-6017
fficient	-6018
_houses	-6019
vey	-6020
_gramm	-6021
entative	-6022
_shorter	-6023
_contest	-6024
_seed	-6025
_lobby	-6026
_webpage	-6027
har	-6028
_revers	-6029
_narr	-6030
_backed	-6031
_william	-6032
_fucking	-6033
_isis	-6034
_pill	-6035
_euro	-6036
_veloc	-6037
_intel	-6038
_unsure	-6039
aret	-6040
_seattle	-6041
_numeric	-6042
_diam	-6043
_boat	-6044
_rolling	-6045
_cancel	-6046
_hardly	-6047
oul	-6048
_walked	-6049
_ships	-6050
_dozens	-6051
_laid	-6052
onts	-6053
_eric	-6054
_deaths	-6055
ptions	-6056
_cham	-6057
_gi	-6058
user	-6059
can	-6060
_victor	-6061
_agenda	-6062
_warned	-6063
_georg	-6064
_bot	-6065
_deputy	-6066
_dub	-6067
_sought	-6068
_tup	-6069
utive	-6070
west	-6071
_kingdom	-6072
_dna	-6073
gged	-6074
_resize	-6075
arios	-6076
_ebitda	-6077
writing	-6078
_picking	-6079
iration	-6080
_dual	-6081
_zoom	-6082
_accepts	-6083
inian	-6084
_walls	-6085
zone	-6086
_inqu	-6087
_hadn	-6088
illance	-6089
_belongs	-6090
_exhib	-6091
_adults	-6092
itories	-6093
igations	-6094
pled	-6095
pal	-6096
_basket	-6097
_proven	-6098
_defeat	-6099
_indu	-6100
_trends	-6101
_artist	-6102
_engin	-6103
_fortun	-6104
lined	-6105
_threats	-6106
_defines	-6107
ae	-6108
_toler	-6109
_matched	-6110
mates	-6111
item	-6112
_engines	-6113
_gol	-6114
ura	-6115
_ruled	-6116
ora	-6117
_scenes	-6118
_gaming	-6119
_implies	-6120
_actor	-6121
verty	-6122
_earned	-6123
_overl	-6124
_saves	-6125
ilit	-6126
_cord	-6127
offs	-6128
engers	-6129
_unix	-6130
_hiding	-6131
_volumes	-6132
_scored	-6133
_togg	-6134
_quad	-6135
party	-6136
_hex	-6137
aid	-6138
_compact	-6139
_sugar	-6140
_incent	-6141
_poverty	-6142
_eld	-6143
nership	-6144
_idi	-6145
_adopted	-6146
_korean	-6147
ricted	-6148
_ctr	-6149
_nest	-6150
_serves	-6151
width	-6152
_nicely	-6153
antial	-6154
_brian	-6155
v0	-6156
_routing	-6157
_gif	-6158
_wing	-6159
_pig	-6160
hus	-6161
_grass	-6162
ups	-6163
_sake	-6164
_craw	-6165
_consol	-6166
_obst	-6167
_expose	-6168
_retain	-6169
_museum	-6170
_warrant	-6171
_safari	-6172
_radical	-6173
_innoc	-6174
_lying	-6175
_behalf	-6176
ni	-6177
_farmers	-6178
_tackle	-6179
_pir	-6180
_correl	-6181
elling	-6182
_italy	-6183
_peak	-6184
_admit	-6185
_gravity	-6186
_wiki	-6187
free	-6188
fin	-6189
_bowl	-6190
_bullet	-6191
_harry	-6192
pendence	-6193
_safely	-6194
_promote	-6195
_wise	-6196
vi	-6197
_wrapped	-6198
_romney	-6199
_arrive	-6200
_archive	-6201
_contrad	-6202
_licens	-6203
_pad	-6204
_grate	-6205
_density	-6206
_joy	-6207
ih	-6208
_hydro	-6209
lands	-6210
_parking	-6211
_gig	-6212
_trained	-6213
_tokens	-6214
_forcing	-6215
person	-6216
_liked	-6217
erry	-6218
_spanish	-6219
_unicode	-6220
onic	-6221
omplete	-6222
group	-6223
_wage	-6224
versial	-6225
_usa	-6226
_ly	-6227
_cryst	-6228
_weigh	-6229
abet	-6230
working	-6231
_vba	-6232
_deprec	-6233
fire	-6234
ivers	-6235
_consec	-6236
_ardu	-6237
_surgery	-6238
_mining	-6239
cts	-6240
_charles	-6241
_pag	-6242
_album	-6243
_bonus	-6244
_jenkins	-6245
ef	-6246
_seats	-6247
pet	-6248
_plate	-6249
_bulk	-6250
_reload	-6251
_bread	-6252
_thresh	-6253
_tickets	-6254
_relax	-6255
edge	-6256
minent	-6257
_holiday	-6258
oted	-6259
kers	-6260
_gift	-6261
_vb	-6262
#0	-6263
_builder	-6264
_kevin	-6265
_steam	-6266
_queen	-6267
wing	-6268
_passion	-6269
_edited	-6270
ancing	-6271
imp	-6272
_typed	-6273
_columb	-6274
_fruit	-6275
px	-6276
_scores	-6277
_latin	-6278
_enem	-6279
_regards	-6280
_fires	-6281
_jet	-6282
_ctrl	-6283
_dish	-6284
pool	-6285
_rapidly	-6286
_staying	-6287
bits	-6288
_absor	-6289
_padding	-6290
_soap	-6291
_enorm	-6292
long	-6293
_lunch	-6294
_clip	-6295
holder	-6296
_centers	-6297
_viewed	-6298
_useless	-6299
_hoc	-6300
image	-6301
_critics	-6302
written	-6303
sed	-6304
law	-6305
_borders	-6306
_si	-6307
_kh	-6308
_upset	-6309
_courts	-6310
_tracks	-6311
object	-6312
ipate	-6313
_resort	-6314
rich	-6315
sex	-6316
_topics	-6317
_dirty	-6318
_mall	-6319
_divided	-6320
_html0	-6321
_symmet	-6322
_ves	-6323
_quit	-6324
_enhance	-6325
_invoked	-6326
_x00	-6327
_tie	-6328
haust	-6329
_wcf	-6330
_mortg	-6331
strate	-6332
athan	-6333
_doors	-6334
_enemies	-6335
tered	-6336
_bold	-6337
_formats	-6338
_dear	-6339
_hd	-6340
oration	-6341
_fasc	-6342
_ties	-6343
_exclude	-6344
_jam	-6345
uler	-6346
retation	-6347
_polynom	-6348
_sheriff	-6349
_demands	-6350
pg	-6351
sters	-6352
_cel	-6353
_od	-6354
po	-6355
_suffer	-6356
iler	-6357
_soul	-6358
_lawyers	-6359
_ai	-6360
_kitch	-6361
_physic	-6362
_aver	-6363
_sed	-6364
_offense	-6365
don	-6366
_optimal	-6367
_sla	-6368
_conce	-6369
_au	-6370
_piv	-6371
_dust	-6372
_lens	-6373
_awk	-6374
_fiddle	-6375
_firing	-6376
_sympt	-6377
ophy	-6378
_prote	-6379
_smoke	-6380
_placing	-6381
_compete	-6382
_xp	-6383
_coe	-6384
_clone	-6385
_unlock	-6386
_redund	-6387
_golden	-6388
_scand	-6389
_exhaust	-6390
igators	-6391
_gpu	-6392
lighted	-6393
_barely	-6394
reted	-6395
_ridic	-6396
boxes	-6397
istrator	-6398
oning	-6399
screen	-6400
_brands	-6401
_tired	-6402
icks	-6403
_roman	-6404
endo	-6405
zilla	-6406
_bom	-6407
block	-6408
_vl	-6409
_trave	-6410
spec	-6411
_raid	-6412
_spa	-6413
_phrase	-6414
idency	-6415
_lis	-6416
_voc	-6417
inguish	-6418
itals	-6419
_ford	-6420
uls	-6421
_fiction	-6422
mar	-6423
_forb	-6424
_firms	-6425
card	-6426
_rename	-6427
_reply	-6428
_divs	-6429
agger	-6430
_spain	-6431
isons	-6432
_gene	-6433
_barack	-6434
station	-6435
_clothes	-6436
-000	-6437
_ease	-6438
rison	-6439
asm	-6440
iencing	-6441
aper	-6442
_nasa	-6443
_closure	-6444
front	-6445
_ain	-6446
ologist	-6447
_aven	-6448
_cnn	-6449
_tay	-6450
_rotate	-6451
_icons	-6452
_winner	-6453
_genu	-6454
_silly	-6455
chester	-6456
rated	-6457
_aimed	-6458
_reaches	-6459
_lazy	-6460
_tensor	-6461
_tons	-6462
_flags	-6463
_vital	-6464
_overse	-6465
_punch	-6466
oured	-6467
_mirror	-6468
_gray	-6469
alk	-6470
_naming	-6471
_periods	-6472
urb	-6473
_scar	-6474
_roots	-6475
_merch	-6476
ez	-6477
_polls	-6478
_allies	-6479
_orbit	-6480
_holly	-6481
_brook	-6482
_affects	-6483
acter	-6484
cre	-6485
_casting	-6486
_cron	-6487
_salary	-6488
uct	-6489
type	-6490
_encoded	-6491
cel	-6492
_loyal	-6493
_streams	-6494
ommod	-6495
theless	-6496
_cleaner	-6497
_jord	-6498
icon	-6499
_cyber	-6500
hop	-6501
_trem	-6502
_congr	-6503
athered	-6504
_gained	-6505
_bucket	-6506
_ts	-6507
_gcc	-6508
_leaf	-6509
_anx	-6510
_tower	-6511
_ont	-6512
elled	-6513
_elastic	-6514
_hired	-6515
icating	-6516
_empire	-6517
oop	-6518
stone	-6519
_citizen	-6520
_rick	-6521
ansas	-6522
_notion	-6523
_songs	-6524
riers	-6525
_ariz	-6526
_deliber	-6527
_nan	-6528
_svg	-6529
_arduino	-6530
_muslims	-6531
_anchor	-6532
_italian	-6533
_legs	-6534
_eb	-6535
_metric	-6536
ette	-6537
game	-6538
mond	-6539
_neck	-6540
_wo	-6541
viet	-6542
_md	-6543
_sr	-6544
_calm	-6545
rets	-6546
_sab	-6547
_lift	-6548
_hints	-6549
umber	-6550
_hou	-6551
ador	-6552
cribe	-6553
_pse	-6554
ears	-6555
_consume	-6556
_twenty	-6557
heet	-6558
isible	-6559
_stol	-6560
lib	-6561
_grade	-6562
zen	-6563
tering	-6564
_ghost	-6565
_tony	-6566
_genuine	-6567
_bc	-6568
ipation	-6569
_astron	-6570
_jur	-6571
rey	-6572
_swim	-6573
_milk	-6574
ifact	-6575
_gm	-6576
arer	-6577
_inev	-6578
_00k	-6579
_whats	-6580
_cleared	-6581
_damn	-6582
_engaged	-6583
_holy	-6584
_counsel	-6585
_nowhere	-6586
roph	-6587
_packet	-6588
_xbox	-6589
_std	-6590
_loud	-6591
_observe	-6592
aph	-6593
erning	-6594
_firstly	-6595
_dance	-6596
_outs	-6597
ounce	-6598
_stake	-6599
_extends	-6600
_selen	-6601
_transit	-6602
_removes	-6603
igated	-6604
_rasp	-6605
_cul	-6606
husi	-6607
_alien	-6608
_shrink	-6609
resql	-6610
_chunk	-6611
_refact	-6612
_vertex	-6613
_stages	-6614
ogether	-6615
_mapped	-6616
_dies	-6617
_expon	-6618
_uncom	-6619
east	-6620
_carl	-6621
_linking	-6622
_equity	-6623
_fought	-6624
_georgia	-6625
_hamm	-6626
_gest	-6627
vable	-6628
_wider	-6629
_contem	-6630
_begun	-6631
_kr	-6632
_gateway	-6633
_artific	-6634
_vpn	-6635
rog	-6636
_bail	-6637
essed	-6638
_enthusi	-6639
_waves	-6640
_pseud	-6641
_virus	-6642
lights	-6643
eding	-6644
_ud	-6645
_gh	-6646
_garden	-6647
_statist	-6648
_veget	-6649
_recycl	-6650
_tweet	-6651
mod	-6652
_henry	-6653
_zeal	-6654
ito	-6655
_pron	-6656
_encl	-6657
_mini	-6658
uated	-6659
ova	-6660
ifiers	-6661
_scared	-6662
_canon	-6663
context	-6664
_overs	-6665
_rocket	-6666
_ef	-6667
_delim	-6668
_monthly	-6669
_turk	-6670
_sna	-6671
_navy	-6672
_fleet	-6673
_headed	-6674
_ie0	-6675
born	-6676
bound	-6677
_printer	-6678
afe	-6679
ulture	-6680
_putin	-6681
_roads	-6682
_orange	-6683
_artists	-6684
_landing	-6685
_soil	-6686
_taxpay	-6687
_caller	-6688
_arizona	-6689
star	-6690
asts	-6691
_stim	-6692
_drew	-6693
_daniel	-6694
_gallery	-6695
_rape	-6696
_fonts	-6697
any	-6698
sheet	-6699
_reuse	-6700
_kiss	-6701
itively	-6702
_rescue	-6703
_sphere	-6704
_joins	-6705
_rally	-6706
_perce	-6707
_vessel	-6708
_cannab	-6709
ppy	-6710
_vacc	-6711
_greek	-6712
_decrypt	-6713
_deck	-6714
_cake	-6715
_davis	-6716
table	-6717
anted	-6718
_grace	-6719
_kitchen	-6720
json	-6721
_fancy	-6722
_jordan	-6723
_jac	-6724
_listing	-6725
_holes	-6726
_spo	-6727
_uri	-6728
_socc	-6729
emen	-6730
_nv	-6731
_ought	-6732
_ku	-6733
books	-6734
_coinc	-6735
_feat	-6736
_thir	-6737
_pivot	-6738
izable	-6739
_stolen	-6740
player	-6741
_patri	-6742
_backing	-6743
index	-6744
_ll	-6745
_reviews	-6746
_soviet	-6747
_vr	-6748
_anc	-6749
enders	-6750
etooth	-6751
_intense	-6752
gis	-6753
_accum	-6754
_latex	-6755
tim	-6756
_curl	-6757
_absence	-6758
americ	-6759
_unders	-6760
_irish	-6761
amps	-6762
_dh	-6763
_badly	-6764
rol	-6765
_semi	-6766
inction	-6767
itarian	-6768
_neutral	-6769
_relief	-6770
_dum	-6771
gas	-6772
arency	-6773
cha	-6774
_aligned	-6775
oku	-6776
_strikes	-6777
ilst	-6778
_lean	-6779
_consp	-6780
_wells	-6781
_rival	-6782
_packets	-6783
_ox	-6784
_needing	-6785
_filling	-6786
_houston	-6787
_fixing	-6788
_opengl	-6789
_banking	-6790
_jews	-6791
mi	-6792
_academy	-6793
pi	-6794
_fastest	-6795
urg	-6796
_elector	-6797
_purely	-6798
_fantasy	-6799
_uncon	-6800
_f0	-6801
_r0	-6802
_logo	-6803
isc	-6804
_grey	-6805
onal	-6806
_conj	-6807
wart	-6808
_~	-6809
isingly	-6810
_scala	-6811
_les	-6812
ppers	-6813
_lyn	-6814
_doesnt	-6815
_dying	-6816
_fing	-6817
_gri	-6818
sea	-6819
_alias	-6820
_footage	-6821
ico	-6822
ores	-6823
_shed	-6824
_rooms	-6825
_picks	-6826
ypes	-6827
ashed	-6828
bour	-6829
ocation	-6830
osition	-6831
_cheaper	-6832
_slot	-6833
_alright	-6834
_dod	-6835
_cum	-6836
woman	-6837
acks	-6838
_jvm	-6839
_autoc	-6840
layout	-6841
_remem	-6842
style	-6843
_clubs	-6844
_offline	-6845
cow	-6846
_miller	-6847
ctive	-6848
_tape	-6849
_polar	-6850
control	-6851
_liver	-6852
grad	-6853
_corn	-6854
_jr	-6855
_wont	-6856
_handful	-6857
_roof	-6858
urity	-6859
_stayed	-6860
_fallen	-6861
_viewing	-6862
_birds	-6863
_nba	-6864
_commits	-6865
_studied	-6866
fast	-6867
_asian	-6868
_stro	-6869
_wires	-6870
alone	-6871
_va	-6872
_pacific	-6873
_whilst	-6874
acking	-6875
_dm	-6876
_ranges	-6877
_extrem	-6878
isan	-6879
_embarr	-6880
_transf	-6881
_pounds	-6882
_cached	-6883
_coin	-6884
_mars	-6885
fa	-6886
_gb	-6887
_matr	-6888
_stephen	-6889
_drove	-6890
_oauth	-6891
erce	-6892
_waters	-6893
fold	-6894
icals	-6895
_sheets	-6896
_looping	-6897
ports	-6898
iry	-6899
oma	-6900
_soccer	-6901
_ampl	-6902
_greg	-6903
_spi	-6904
_pending	-6905
_dumb	-6906
_dur	-6907
_lect	-6908
_slic	-6909
_marine	-6910
_wash	-6911
iously	-6912
bered	-6913
ched	-6914
_banned	-6915
foot	-6916
_hanging	-6917
_tablet	-6918
_markup	-6919
_veteran	-6920
_ages	-6921
ui	-6922
_neu	-6923
imental	-6924
_myth	-6925
_diet	-6926
_threw	-6927
_elabor	-6928
_servlet	-6929
_spoken	-6930
_taylor	-6931
awa	-6932
_oxy	-6933
_enroll	-6934
_noting	-6935
_rural	-6936
_sink	-6937
_hire	-6938
_hay	-6939
omorph	-6940
inder	-6941
_numpy	-6942
_bottle	-6943
_minnes	-6944
_beauty	-6945
_condem	-6946
_broader	-6947
_moscow	-6948
rene	-6949
thy	-6950
nis	-6951
_amid	-6952
_vim	-6953
_circles	-6954
_wedding	-6955
_pandas	-6956
plot	-6957
_radius	-6958
_tends	-6959
acs	-6960
ales	-6961
_toy	-6962
_cass	-6963
_invited	-6964
_poison	-6965
_0/0	-6966
_incons	-6967
_selects	-6968
_founder	-6969
_imports	-6970
_elite	-6971
_wow	-6972
_writers	-6973
_jury	-6974
ilton	-6975
_twist	-6976
_genetic	-6977
_tremend	-6978
_hockey	-6979
_wides	-6980
ani	-6981
ntial	-6982
_ftp	-6983
_bounds	-6984
_brut	-6985
_lux	-6986
_flip	-6987
unks	-6988
_pent	-6989
_orth	-6990
_corre	-6991
_affili	-6992
_shame	-6993
_profits	-6994
ferred	-6995
_metrics	-6996
_arts	-6997
_examine	-6998
ko	-6999
_btw	-7000
dog	-7001
_handy	-7002
_balls	-7003
cii	-7004
_prince	-7005
_gps	-7006
_divid	-7007
_inhere	-7008
whelming	-7009
_000000	-7010
_mesh	-7011
dy	-7012
_casual	-7013
_cave	-7014
_lew	-7015
_gt	-7016
_marker	-7017
_collaps	-7018
_quoted	-7019
elect	-7020
_cycles	-7021
_kit	-7022
eared	-7023
_fer	-7024
_slider	-7025
_domains	-7026
_founded	-7027
_tone	-7028
_fixes	-7029
_dv	-7030
plus	-7031
_locate	-7032
_dall	-7033
_patent	-7034
adel	-7035
_emerged	-7036
_cruz	-7037
no	-7038
udes	-7039
_wilson	-7040
_eag	-7041
owed	-7042
pread	-7043
_kelly	-7044
_pursue	-7045
_enjoyed	-7046
_ingred	-7047
_grounds	-7048
_cited	-7049
_steady	-7050
_awa	-7051
_bypass	-7052
ena	-7053
_jason	-7054
_doct	-7055
_fabric	-7056
cos	-7057
world	-7058
_ak	-7059
_theat	-7060
_damaged	-7061
stit	-7062
_flood	-7063
racted	-7064
_avenue	-7065
och	-7066
amin	-7067
ali	-7068
inn	-7069
_tang	-7070
endation	-7071
_monster	-7072
_gc	-7073
_spar	-7074
iser	-7075
iro	-7076
mediate	-7077
_burning	-7078
irected	-7079
quarters	-7080
_gmail	-7081
_bureau	-7082
_stun	-7083
_handed	-7084
_sword	-7085
_hunt	-7086
_suite	-7087
rectly	-7088
ava	-7089
_foss	-7090
obe	-7091
_volat	-7092
_surge	-7093
_designs	-7094
_deny	-7095
mers	-7096
_clever	-7097
igent	-7098
_acid	-7099
_discour	-7100
_josh	-7101
gaap	-7102
_rook	-7103
umin	-7104
_alarm	-7105
eping	-7106
_scoring	-7107
onds	-7108
_modest	-7109
_chicken	-7110
_minds	-7111
mes	-7112
_permit	-7113
_thats	-7114
_scaling	-7115
_mb	-7116
_revol	-7117
_disney	-7118
_dave	-7119
_lun	-7120
lfriend	-7121
activity	-7122
aine	-7123
_tunnel	-7124
_equals	-7125
ointed	-7126
_discrim	-7127
_welf	-7128
_nich	-7129
_sony	-7130
_cli	-7131
_miami	-7132
_trusted	-7133
doc	-7134
_odds	-7135
_retired	-7136
_hoped	-7137
een	-7138
ificates	-7139
pick	-7140
istent	-7141
_wages	-7142
ycle	-7143
kel	-7144
_datag	-7145
zed	-7146
oster	-7147
roit	-7148
_slides	-7149
_brill	-7150
_welfare	-7151
called	-7152
_mounted	-7153
phy	-7154
_harass	-7155
_abc	-7156
_roster	-7157
_synth	-7158
dig	-7159
_merc	-7160
_cin	-7161
osis	-7162
_iso	-7163
_nomine	-7164
_panels	-7165
domain	-7166
ira	-7167
_0k	-7168
_therm	-7169
aping	-7170
burg	-7171
_marry	-7172
advant	-7173
_shoes	-7174
strated	-7175
_anger	-7176
_wizard	-7177
_ping	-7178
_desert	-7179
_dragon	-7180
cco	-7181
_debut	-7182
_robin	-7183
_rav	-7184
_treaty	-7185
_ward	-7186
_nhl	-7187
_drill	-7188
unes	-7189
_indices	-7190
idding	-7191
_adequ	-7192
_enters	-7193
_feas	-7194
xture	-7195
aigns	-7196
month	-7197
_oak	-7198
mate	-7199
_relies	-7200
_offices	-7201
_ufc	-7202
_weekly	-7203
_pharm	-7204
_fue	-7205
_pit	-7206
_thro	-7207
_actors	-7208
wa	-7209
_kent	-7210
tc	-7211
_cabinet	-7212
dim	-7213
_provin	-7214
bu	-7215
sch	-7216
lar	-7217
_dallas	-7218
_toggle	-7219
_ff	-7220
aware	-7221
_recipe	-7222
_prize	-7223
_mm	-7224
_detroit	-7225
plate	-7226
_turkish	-7227
_fighter	-7228
gbt	-7229
_asc	-7230
specific	-7231
_bios	-7232
_bitmap	-7233
admin	-7234
_drops	-7235
erer	-7236
_chest	-7237
_ros	-7238
_partly	-7239
zer	-7240
_illness	-7241
_cig	-7242
ativity	-7243
oting	-7244
_zealand	-7245
_vague	-7246
_blob	-7247
_wet	-7248
_liby	-7249
_beliefs	-7250
regon	-7251
consin	-7252
_caps	-7253
_deter	-7254
_bron	-7255
_judg	-7256
_urg	-7257
_gov	-7258
_oregon	-7259
_shapes	-7260
_liberty	-7261
_joseph	-7262
_footer	-7263
sem	-7264
_trim	-7265
ciation	-7266
lyn	-7267
omin	-7268
_portal	-7269
_ale	-7270
_arsen	-7271
_racing	-7272
_recur	-7273
profit	-7274
eman	-7275
_ether	-7276
_fears	-7277
orous	-7278
_naz	-7279
eu	-7280
_resign	-7281
_fate	-7282
manager	-7283
_resume	-7284
_sevent	-7285
_aes	-7286
nic	-7287
found	-7288
_enables	-7289
0d	-7290
_rice	-7291
_debian	-7292
_irr	-7293
_satisfy	-7294
_sadly	-7295
0j	-7296
olds	-7297
_vent	-7298
_chamber	-7299
_gradle	-7300
_incomp	-7301
_pic	-7302
orse	-7303
comes	-7304
_kat	-7305
_reserv	-7306
_tu	-7307
array	-7308
_walker	-7309
_lastly	-7310
ji	-7311
_nin	-7312
_greece	-7313
_ambig	-7314
_viable	-7315
urations	-7316
_adjac	-7317
_crystal	-7318
_arithm	-7319
_sits	-7320
_tam	-7321
_frankly	-7322
_warming	-7323
_corp	-7324
_mozilla	-7325
_escaped	-7326
_obsc	-7327
_avo	-7328
_entit	-7329
_lane	-7330
ventions	-7331
_temple	-7332
_killer	-7333
_0'	-7334
_devast	-7335
_foods	-7336
iner	-7337
_grows	-7338
_sophist	-7339
_speeds	-7340
rage	-7341
_unions	-7342
iture	-7343
_encode	-7344
_analyze	-7345
_bump	-7346
_subtle	-7347
_haz	-7348
_wallet	-7349
_trials	-7350
cher	-7351
_riding	-7352
_comic	-7353
ounced	-7354
_heroku	-7355
cv	-7356
_stats	-7357
_belt	-7358
_tes	-7359
version	-7360
_clash	-7361
_commod	-7362
arest	-7363
_vendor	-7364
_entr	-7365
client	-7366
_cogn	-7367
_delayed	-7368
_charlie	-7369
_moore	-7370
_0gb	-7371
_matth	-7372
_svn	-7373
_ancest	-7374
_facilit	-7375
_eve	-7376
_hybr	-7377
wt	-7378
_safer	-7379
_gut	-7380
_kir	-7381
_uncle	-7382
real	-7383
cou	-7384
_joke	-7385
_charts	-7386
_avoided	-7387
step	-7388
_deserve	-7389
_discard	-7390
_junior	-7391
_undert	-7392
_jsp	-7393
_bears	-7394
_legally	-7395
_summit	-7396
_ssd	-7397
_settled	-7398
_congrat	-7399
arms	-7400
_ny	-7401
_cod	-7402
_obam	-7403
_adopt	-7404
dis	-7405
_eager	-7406
_warri	-7407
_treas	-7408
_owns	-7409
stein	-7410
_texts	-7411
_briefly	-7412
panel	-7413
_polygon	-7414
scale	-7415
market	-7416
ertainty	-7417
_existed	-7418
_overlay	-7419
rency	-7420
_slave	-7421
_burden	-7422
_peer	-7423
mad	-7424
through	-7425
cill	-7426
_persons	-7427
_chap	-7428
asty	-7429
ulates	-7430
_judges	-7431
vania	-7432
_overlap	-7433
_blur	-7434
_rear	-7435
_flows	-7436
_nerv	-7437
_powered	-7438
_sque	-7439
_overt	-7440
open	-7441
_forums	-7442
_spawn	-7443
ati	-7444
_rif	-7445
aly	-7446
_enfor	-7447
_aggress	-7448
iw	-7449
_ascii	-7450
_invas	-7451
_alab	-7452
cop	-7453
_mete	-7454
_polling	-7455
olit	-7456
_femin	-7457
_gulf	-7458
_flush	-7459
_silent	-7460
_buck	-7461
_mongo	-7462
facturer	-7463
_graphs	-7464
lla	-7465
_mile	-7466
phia	-7467
acare	-7468
_oxygen	-7469
_pocket	-7470
plan	-7471
_pause	-7472
_courses	-7473
_missile	-7474
_touched	-7475
_islands	-7476
_ranks	-7477
button	-7478
_knight	-7479
alities	-7480
_eggs	-7481
_hunting	-7482
_bible	-7483
_carrier	-7484
_graphic	-7485
_races	-7486
_cia	-7487
kill	-7488
_sg	-7489
_metro	-7490
thread	-7491
_raises	-7492
iat	-7493
_png	-7494
_spots	-7495
aska	-7496
anged	-7497
_eps	-7498
post	-7499
ologists	-7500
arn	-7501
addy	-7502
ja	-7503
_namely	-7504
_cmd	-7505
_underne	-7506
web	-7507
_relate	-7508
_divor	-7509
_len	-7510
_d0	-7511
_cav	-7512
_guards	-7513
gender	-7514
_guit	-7515
_hiring	-7516
eing	-7517
ua	-7518
_meg	-7519
ref	-7520
_phd	-7521
_0:00	-7522
_slo	-7523
_nur	-7524
iculties	-7525
_newbie	-7526
izers	-7527
_venture	-7528
_coded	-7529
_nato	-7530
_abb	-7531
_sne	-7532
_elder	-7533
_priest	-7534
_kin	-7535
ylvania	-7536
_uber	-7537
adelphia	-7538
_lgbt	-7539
_penns	-7540
ras	-7541
_han	-7542
reter	-7543
eties	-7544
test	-7545
_towns	-7546
_symp	-7547
iana	-7548
_bib	-7549
_rolled	-7550
_chrom	-7551
_removal	-7552
away	-7553
ledged	-7554
_lind	-7555
_rounds	-7556
_viet	-7557
_refuse	-7558
/00	-7559
_eigen	-7560
_parsed	-7561
forming	-7562
_morgan	-7563
_fluid	-7564
_closes	-7565
aire	-7566
dum	-7567
_ratings	-7568
_atlanta	-7569
uss	-7570
_funded	-7571
fish	-7572
_iranian	-7573
_viewers	-7574
_fork	-7575
gging	-7576
_chunks	-7577
_paypal	-7578
_gor	-7579
omenon	-7580
cell	-7581
_irrele	-7582
_alabama	-7583
_knife	-7584
_expend	-7585
_mystery	-7586
_reass	-7587
_bye	-7588
_sensors	-7589
rained	-7590
_lone	-7591
_unsu	-7592
_atomic	-7593
_spy	-7594
_vibr	-7595
_decides	-7596
aneous	-7597
_blast	-7598
_variant	-7599
_pride	-7600
ffect	-7601
_dd	-7602
_ec0	-7603
_nose	-7604
_sketch	-7605
eristics	-7606
rounded	-7607
_bacter	-7608
_abroad	-7609
_hood	-7610
_stabil	-7611
_scandal	-7612
iph	-7613
_santa	-7614
_triple	-7615
_acquire	-7616
_brid	-7617
_loves	-7618
icket	-7619
bug	-7620
_viewer	-7621
hd	-7622
hour	-7623
_lesson	-7624
_highway	-7625
_hmm	-7626
api	-7627
_indexed	-7628
_0-00	-7629
_keen	-7630
riv	-7631
ictions	-7632
_sig	-7633
_migrate	-7634
etts	-7635
_smile	-7636
llect	-7637
_buried	-7638
_perpet	-7639
asant	-7640
_hp	-7641
izz	-7642
_iow	-7643
flix	-7644
_globe	-7645
_boom	-7646
_matthew	-7647
_revel	-7648
downs	-7649
gy	-7650
_concert	-7651
_npm	-7652
_arena	-7653
_weights	-7654
power	-7655
mann	-7656
_fc	-7657
su	-7658
_autonom	-7659
_renders	-7660
watch	-7661
_fu	-7662
_dutch	-7663
gue	-7664
bye	-7665
irable	-7666
_custody	-7667
ipher	-7668
_guests	-7669
_stepped	-7670
_bone	-7671
_wrest	-7672
_nex	-7673
_impacts	-7674
yard	-7675
_arabia	-7676
ev	-7677
uten	-7678
rine	-7679
ront	-7680
ijing	-7681
_diego	-7682
_netflix	-7683
_iraqi	-7684
_racial	-7685
_fingers	-7686
unc	-7687
_reforms	-7688
_patrick	-7689
_silence	-7690
_syd	-7691
organ	-7692
_proc	-7693
_rust	-7694
_dreams	-7695
_obs	-7696
_smoking	-7697
_deficit	-7698
_bias	-7699
_slice	-7700
_reduces	-7701
encing	-7702
_steal	-7703
imm	-7704
casting	-7705
_hes	-7706
_utilize	-7707
erable	-7708
_scop	-7709
sm	-7710
_meteor	-7711
_beijing	-7712
_itunes	-7713
_suck	-7714
_relates	-7715
_dealt	-7716
_encaps	-7717
_awful	-7718
iderable	-7719
couver	-7720
eses	-7721
axis	-7722
_helic	-7723
oys	-7724
_xpath	-7725
_passage	-7726
_entrep	-7727
_delic	-7728
ala	-7729
_possess	-7730
sell	-7731
nc	-7732
osystem	-7733
_creator	-7734
arin	-7735
_whis	-7736
nell	-7737
_jay	-7738
_rebels	-7739
_ic	-7740
_nervous	-7741
_bubble	-7742
_adobe	-7743
_solves	-7744
_messy	-7745
des	-7746
esty	-7747
_mood	-7748
_inverse	-7749
brow	-7750
isec	-7751
_yields	-7752
_kinda	-7753
aving	-7754
_defect	-7755
_grammar	-7756
neys	-7757
_sooner	-7758
achus	-7759
coded	-7760
_00x	-7761
rus	-7762
_a0	-7763
_tuple	-7764
_foreach	-7765
_clarity	-7766
ronics	-7767
_infer	-7768
_teeth	-7769
paces	-7770
_unh	-7771
_kindly	-7772
_realm	-7773
_neat	-7774
_relying	-7775
_anton	-7776
ricts	-7777
_secured	-7778
_cous	-7779
_regret	-7780
_00v	-7781
_nint	-7782
iversary	-7783
_persu	-7784
inity	-7785
_cream	-7786
_pk	-7787
_bic	-7788
_awkward	-7789
_municip	-7790
_drone	-7791
_duck	-7792
_leaks	-7793
_000k	-7794
_therapy	-7795
_themes	-7796
irects	-7797
_nil	-7798
inois	-7799
angers	-7800
_decomp	-7801
ateral	-7802
owned	-7803
pad	-7804
_kong	-7805
_delta	-7806
_meters	-7807
_ballot	-7808
iview	-7809
_cats	-7810
_porn	-7811
_forgive	-7812
_voter	-7813
_gp	-7814
_bonds	-7815
_golf	-7816
_butter	-7817
_mim	-7818
kell	-7819
_evident	-7820
_fred	-7821
_minus	-7822
ria	-7823
_neural	-7824
_plots	-7825
_portra	-7826
_imply	-7827
ectual	-7828
_um	-7829
_sarah	-7830
_kurd	-7831
ctic	-7832
_lately	-7833
start	-7834
_painful	-7835
_harsh	-7836
_cock	-7837
_lion	-7838
_sydney	-7839
agan	-7840
_lev	-7841
_rober	-7842
org	-7843
_conspir	-7844
_subd	-7845
idia	-7846
_escal	-7847
_skept	-7848
_fled	-7849
arity	-7850
_webview	-7851
_chips	-7852
produ	-7853
_pier	-7854
cially	-7855
thony	-7856
versy	-7857
_tricks	-7858
_seper	-7859
▁	-7860
e	-7861
t	-7862
a	-7863
o	-7864
i	-7865
n	-7866
s	-7867
r	-7868
h	-7869
l	-7870
d	-7871
c	-7872
u	-7873
m	-7874
p	-7875
f	-7876
g	-7877
y	-7878
w	-7879
b	-7880
v	-7881
k	-7882
0	-7883
'	-7884
x	-7885
j	-7886
q	-7887
-	-7888
z	-7889
$	-7890
%	-7891
,	-7892
+	-7893
/	-7894
&	-7895
#	-7896
=	-7897
@	-7898
*	-7899
:	-7900
?	-7901
~	-7902
€	-7903
°	-7904
£	-7905
π	-7906
;	-7907
±	-7908
¥	-7909
₹	-7910
(	-7911
)	-7912
.	-7913
1	-7914
2	-7915
3	-7916
4	-7917
5	-7918
6	-7919
7	-7920
8	-7921
9	-7922
<	-7923
>	-7924
A	-7925
B	-7926
C	-7927
D	-7928
E	-7929
F	-7930
G	-7931
H	-7932
I	-7933
J	-7934
K	-7935
L	-7936
M	-7937
N	-7938
O	-7939
P	-7940
Q	-7941
R	-7942
S	-7943
T	-7944
U	-7945
V	-7946
W	-7947
X	-7948
Y	-7949
Z	-7950
[	-7951
\	-7952
]	-7953
^	-7954
_	-7955
{	-7956
|	-7957
}	-7958
